{
  "version": "1.0",
  "truncation": null,
  "padding": null,
  "added_tokens": [
    {
      "id": 0,
      "content": "<unk>",
      "single_word": false,
      "lstrip": false,
      "rstrip": false,
      "normalized": false,
      "special": true
    },
    {
      "id": 1,
      "content": "<pad>",
      "single_word": false,
      "lstrip": false,
      "rstrip": false,
      "normalized": false,
      "special": true
    },
    {
      "id": 2,
      "content": "<bos>",
      "single_word": false,
      "lstrip": false,
      "rstrip": false,
      "normalized": false,
      "special": true
    },
    {
      "id": 3,
      "content": "<eos>",
      "single_word": false,
      "lstrip": false,
      "rstrip": false,
      "normalized": false,
      "special": true
    }
  ],
  "normalizer": null,
  "pre_tokenizer": {
    "type": "ByteLevel",
    "add_prefix_space": true,
    "trim_offsets": true,
    "use_regex": true
  },
  "post_processor": null,
  "decoder": {
    "type": "ByteLevel",
    "add_prefix_space": true,
    "trim_offsets": true,
    "use_regex": true
  },
  "model": {
    "type": "BPE",
    "dropout": null,
    "unk_token": "<unk>",
    "continuing_subword_prefix": null,
    "end_of_word_suffix": null,
    "fuse_unk": false,
    "byte_fallback": false,
    "ignore_merges": false,
    "vocab": {
      "<unk>": 0,
      "<pad>": 1,
      "<bos>": 2,
      "<eos>": 3,
      "!": 4,
      "\"": 5,
      "$": 6,
      "'": 7,
      ",": 8,
      "-": 9,
      ".": 10,
      "0": 11,
      "1": 12,
      "2": 13,
      "3": 14,
      "4": 15,
      "5": 16,
      "6": 17,
      "7": 18,
      "8": 19,
      "9": 20,
      ":": 21,
      ";": 22,
      "?": 23,
      "A": 24,
      "B": 25,
      "C": 26,
      "D": 27,
      "E": 28,
      "F": 29,
      "G": 30,
      "H": 31,
      "I": 32,
      "J": 33,
      "K": 34,
      "L": 35,
      "M": 36,
      "N": 37,
      "O": 38,
      "P": 39,
      "Q": 40,
      "R": 41,
      "S": 42,
      "T": 43,
      "U": 44,
      "V": 45,
      "W": 46,
      "X": 47,
      "Y": 48,
      "Z": 49,
      "a": 50,
      "b": 51,
      "c": 52,
      "d": 53,
      "e": 54,
      "f": 55,
      "g": 56,
      "h": 57,
      "i": 58,
      "j": 59,
      "k": 60,
      "l": 61,
      "m": 62,
      "n": 63,
      "o": 64,
      "p": 65,
      "q": 66,
      "r": 67,
      "s": 68,
      "t": 69,
      "u": 70,
      "v": 71,
      "w": 72,
      "x": 73,
      "y": 74,
      "z": 75,
      "¡": 76,
      "¢": 77,
      "¦": 78,
      "©": 79,
      "«": 80,
      "¬": 81,
      "±": 82,
      "³": 83,
      "»": 84,
      "Â": 85,
      "Ã": 86,
      "Å": 87,
      "Ë": 88,
      "â": 89,
      "Ċ": 90,
      "č": 91,
      "Ġ": 92,
      "Ģ": 93,
      "Ĥ": 94,
      "ĥ": 95,
      "Ħ": 96,
      "ĵ": 97,
      "ľ": 98,
      "Ŀ": 99,
      "he": 100,
      "Ġt": 101,
      "Ġa": 102,
      "Ġs": 103,
      "Ġw": 104,
      "nd": 105,
      "Ġthe": 106,
      "ed": 107,
      "čĊ": 108,
      "in": 109,
      "Ġand": 110,
      "Ġb": 111,
      "Ġto": 112,
      "Ġwa": 113,
      "Ġh": 114,
      "re": 115,
      "it": 116,
      "Ġf": 117,
      "ou": 118,
      "ĠčĊ": 119,
      "er": 120,
      "Ġl": 121,
      "Ġhe": 122,
      "Ġwas": 123,
      "Ġc": 124,
      "ĠT": 125,
      "Ġd": 126,
      "Ġm": 127,
      "Ġp": 128,
      "Ġo": 129,
      "ing": 130,
      "om": 131,
      "ar": 132,
      "ay": 133,
      "is": 134,
      "Ġg": 135,
      "ĠThe": 136,
      "id": 137,
      "at": 138,
      "ll": 139,
      "en": 140,
      "ĠS": 141,
      "Ġsa": 142,
      "ne": 143,
      "Ġha": 144,
      "im": 145,
      "le": 146,
      "an": 147,
      "or": 148,
      "Ġit": 149,
      "Ġth": 150,
      "ĠH": 151,
      "et": 152,
      "il": 153,
      "on": 154,
      "Ġher": 155,
      "ir": 156,
      "ver": 157,
      "ĠHe": 158,
      "Ġ\"": 159,
      "Ġin": 160,
      "Ġe": 161,
      "Ġn": 162,
      "ot": 163,
      "ĠShe": 164,
      "ld": 165,
      "ut": 166,
      "ow": 167,
      "Ġu": 168,
      "Ġbe": 169,
      "ck": 170,
      "ce": 171,
      "Ġsaid": 172,
      "Ġshe": 173,
      "ig": 174,
      "Ġst": 175,
      "oo": 176,
      "Ġso": 177,
      "pp": 178,
      "Ġr": 179,
      "ĠO": 180,
      "am": 181,
      "Ġy": 182,
      "ke": 183,
      "Ġof": 184,
      "ve": 185,
      "ith": 186,
      "st": 187,
      "ked": 188,
      "Ġhis": 189,
      "very": 190,
      "Ġwith": 191,
      "ĠI": 192,
      "ri": 193,
      "Ġday": 194,
      "ĠThey": 195,
      "ĠL": 196,
      "nt": 197,
      "ad": 198,
      "Ġpl": 199,
      "Ġup": 200,
      "Ġthat": 201,
      "Ġhad": 202,
      "Ġyou": 203,
      "ily": 204,
      "ĠB": 205,
      "itt": 206,
      "ould": 207,
      "el": 208,
      "ent": 209,
      "Ġon": 210,
      "es": 211,
      "Ġplay": 212,
      "Ġfor": 213,
      "Ġthey": 214,
      "Ġwe": 215,
      "my": 216,
      "ittle": 217,
      "ound": 218,
      "un": 219,
      "out": 220,
      "Ġlittle": 221,
      "'s": 222,
      "ch": 223,
      "Ġmom": 224,
      "Ġhapp": 225,
      "ly": 226,
      "ime": 227,
      "Ġthere": 228,
      "her": 229,
      "Ġtime": 230,
      "ĠM": 231,
      "ĠJ": 232,
      "all": 233,
      "ĠLily": 234,
      "Ġsm": 235,
      "Ġsh": 236,
      "Ġvery": 237,
      "Ġli": 238,
      "ht": 239,
      "Ġwh": 240,
      "Ġne": 241,
      "Ġre": 242,
      "ome": 243,
      "al": 244,
      "Ġwant": 245,
      "se": 246,
      "Ġdo": 247,
      "end": 248,
      "ack": 249,
      "Ġk": 250,
      "ĠA": 251,
      "Ġas": 252,
      "ĠOn": 253,
      "Ġhappy": 254,
      "Ġbig": 255,
      "Ġan": 256,
      "Ġbut": 257,
      "ĠOnce": 258,
      "ra": 259,
      "Ġsaw": 260,
      "ĠOne": 261,
      "riend": 262,
      "Ġfriend": 263,
      "ved": 264,
      "Ġloo": 265,
      "'t": 266,
      "irl": 267,
      "ore": 268,
      "ake": 269,
      "ec": 270,
      "ug": 271,
      "Ġgirl": 272,
      "ĠIt": 273,
      "ide": 274,
      "ter": 275,
      "Ġbo": 276,
      "Ġwere": 277,
      "Ġex": 278,
      "ill": 279,
      "Ġupon": 280,
      "ry": 281,
      "Ġhim": 282,
      "Ġnot": 283,
      "Ġlo": 284,
      "Ġgo": 285,
      "!\"": 286,
      "Ġj": 287,
      "ard": 288,
      ".\"": 289,
      "Ġout": 290,
      "ĠTim": 291,
      "Ġsp": 292,
      "fu": 293,
      "Ġwanted": 294,
      "Ġar": 295,
      "Ġcould": 296,
      "way": 297,
      "hen": 298,
      "Ġtoo": 299,
      "ur": 300,
      "Ġis": 301,
      "Ã¢": 302,
      "âĤ": 303,
      "âĤ¬": 304,
      "hing": 305,
      "Ġse": 306,
      "ind": 307,
      "ain": 308,
      "ic": 309,
      "art": 310,
      "Ġat": 311,
      "Ġall": 312,
      "hed": 313,
      "Ġwent": 314,
      "um": 315,
      "iled": 316,
      "ful": 317,
      "ight": 318,
      "rom": 319,
      "Ġsmiled": 320,
      "lp": 321,
      "Ġaround": 322,
      "ĠW": 323,
      "Ġthem": 324,
      "Ġfriends": 325,
      "Ġhelp": 326,
      "Ġnam": 327,
      "oug": 328,
      "ood": 329,
      "Ġback": 330,
      "Ġdid": 331,
      "Ġcl": 332,
      "ark": 333,
      "omet": 334,
      "ss": 335,
      "Ġasked": 336,
      "?\"": 337,
      "Ġtheir": 338,
      "Ġca": 339,
      "Ġhave": 340,
      "Ġfun": 341,
      "Ġcan": 342,
      "Ġlooked": 343,
      "ĠBut": 344,
      "Ġsomet": 345,
      "Ġboy": 346,
      "Ġle": 347,
      "one": 348,
      "side": 349,
      "Ġstart": 350,
      "Ġal": 351,
      "ure": 352,
      "elt": 353,
      "Ġfe": 354,
      "Ġwould": 355,
      "Ġfelt": 356,
      "ick": 357,
      "op": 358,
      "Ġloved": 359,
      "Ġnamed": 360,
      "ĠTom": 361,
      "Ġno": 362,
      "dd": 363,
      "get": 364,
      "ĠE": 365,
      "Ġare": 366,
      "ame": 367,
      "ited": 368,
      "Ġexc": 369,
      "ĠTimmy": 370,
      "Ġman": 371,
      "ie": 372,
      "ĠBen": 373,
      "ree": 374,
      "Ġsomething": 375,
      "king": 376,
      "ice": 377,
      "ong": 378,
      "Ġwor": 379,
      "Ġlike": 380,
      "Ġsc": 381,
      "Ġbir": 382,
      "Ġstarted": 383,
      "ro": 384,
      "Ġsome": 385,
      "gether": 386,
      "Ġag": 387,
      "Ġbird": 388,
      "Ġme": 389,
      "Ġfa": 390,
      "Ġro": 391,
      "Ġsee": 392,
      "ade": 393,
      "ag": 394,
      "own": 395,
      "pped": 396,
      "Ġaway": 397,
      "Ġexcited": 398,
      "Ġtogether": 399,
      "pl": 400,
      "ings": 401,
      "Ġran": 402,
      "oud": 403,
      "Ġtoy": 404,
      "Ġwhat": 405,
      "Ġthen": 406,
      "ared": 407,
      "Ġmake": 408,
      "Ġmu": 409,
      "ble": 410,
      "if": 411,
      "Ġhome": 412,
      "ĠF": 413,
      "Ġla": 414,
      "You": 415,
      "Ġch": 416,
      "ally": 417,
      "ĠSu": 418,
      "Ġmade": 419,
      "Ġwal": 420,
      "qu": 421,
      "hat": 422,
      "Ġagain": 423,
      "as": 424,
      "Ġfound": 425,
      "Ġpark": 426,
      "Ġfrom": 427,
      ",\"": 428,
      "Ġdec": 429,
      "ell": 430,
      "Ġwhen": 431,
      "Ġnew": 432,
      "Ġbr": 433,
      "ous": 434,
      "Ġco": 435,
      "ep": 436,
      "Ġwho": 437,
      "ĠJo": 438,
      "ought": 439,
      "Ġevery": 440,
      "Ġot": 441,
      "Ġget": 442,
      "Ġput": 443,
      "ĠD": 444,
      "Ġplaying": 445,
      "Ġother": 446,
      "Ġone": 447,
      "ĠSo": 448,
      "Ġsad": 449,
      "ile": 450,
      "ided": 451,
      "Ġpr": 452,
      "Ġdecided": 453,
      "Ġfl": 454,
      "Ġcar": 455,
      "Ġold": 456,
      "ave": 457,
      "Ġv": 458,
      "Ġbu": 459,
      "Ġgot": 460,
      "Ġhug": 461,
      "bb": 462,
      "Ġsay": 463,
      "Ġgood": 464,
      "Ġthings": 465,
      "ach": 466,
      "ried": 467,
      "ny": 468,
      "ust": 469,
      "ĠMom": 470,
      "Ġthan": 471,
      "eci": 472,
      "ouse": 473,
      "Ġbec": 474,
      "Ġfeel": 475,
      "Ġfind": 476,
      "Ġdown": 477,
      "dden": 478,
      "Ġke": 479,
      "Ġsw": 480,
      "Ġkn": 481,
      "Ġcame": 482,
      "ecial": 483,
      "Ġspecial": 484,
      "ways": 485,
      "ĠEvery": 486,
      "Ġbl": 487,
      "ĠJack": 488,
      "ĠWhen": 489,
      "ddenly": 490,
      "Ġtree": 491,
      "Ġab": 492,
      "nder": 493,
      "Ġalways": 494,
      "Ġlot": 495,
      "Ġscared": 496,
      "Ġkne": 497,
      "Ġpo": 498,
      "ched": 499,
      "Ġtake": 500,
      "Ġthought": 501,
      "Ġint": 502,
      "ook": 503,
      "ant": 504,
      "ist": 505,
      "Ġgra": 506,
      "our": 507,
      "ge": 508,
      "ite": 509,
      "Ġabout": 510,
      "ĠÃ¢": 511,
      "Ġcare": 512,
      "Ġdad": 513,
      "Ġgr": 514,
      "Ġexpl": 515,
      "Ġtook": 516,
      "Ġlook": 517,
      "ened": 518,
      "Ġdidn": 519,
      "fe": 520,
      "ise": 521,
      "Ġliked": 522,
      "Ġlaug": 523,
      "Åĵ": 524,
      "fter": 525,
      "uck": 526,
      "ĠYou": 527,
      "ma": 528,
      "Ġpe": 529,
      "reat": 530,
      "Ġta": 531,
      "Ġpa": 532,
      "Ġknew": 533,
      "ven": 534,
      "Ġdog": 535,
      "Ġho": 536,
      "Ġmore": 537,
      "Ġyour": 538,
      "Ġoutside": 539,
      "Ġtw": 540,
      "ĠSuddenly": 541,
      "ers": 542,
      "Ġcat": 543,
      "Ġsk": 544,
      "Ġpu": 545,
      "ned": 546,
      "Ġcouldn": 547,
      "ive": 548,
      "Ġen": 549,
      "Ġhow": 550,
      "Ġmy": 551,
      "ace": 552,
      "Ġqu": 553,
      "Ġmuch": 554,
      "lly": 555,
      "by": 556,
      "ged": 557,
      "uc": 558,
      "Ġsun": 559,
      "Ġmo": 560,
      "ĠHer": 561,
      "ret": 562,
      "ion": 563,
      "Ġnever": 564,
      "Ġinto": 565,
      "Ġtr": 566,
      "ara": 567,
      "ĠSam": 568,
      "ĠMa": 569,
      "Ġover": 570,
      "Ġany": 571,
      "Ġjo": 572,
      "Ġknow": 573,
      "Ġproud": 574,
      "Ġclo": 575,
      "Ġlear": 576,
      "Ġshow": 577,
      "Ġthis": 578,
      "ĠHis": 579,
      "Ġstr": 580,
      "ough": 581,
      "hn": 582,
      "Ġif": 583,
      "Ġheard": 584,
      "Ġmommy": 585,
      "Ġsays": 586,
      "pt": 587,
      "vent": 588,
      "ish": 589,
      "Ġinside": 590,
      "ĠJohn": 591,
      "ning": 592,
      "ĠSara": 593,
      "au": 594,
      "Ġcall": 595,
      "Ġad": 596,
      "Ġop": 597,
      "oth": 598,
      "here": 599,
      "Ġwill": 600,
      "Ġhouse": 601,
      "Ġfo": 602,
      "ĠThen": 603,
      "ild": 604,
      "dy": 605,
      "Ġball": 606,
      "ear": 607,
      "Ġhand": 608,
      "Ġtold": 609,
      "Ġoff": 610,
      "ort": 611,
      "sel": 612,
      "Ġgave": 613,
      "ving": 614,
      "Ġsmall": 615,
      "Ġtoys": 616,
      "ĠMax": 617,
      "other": 618,
      "âĤ¬â": 619,
      "na": 620,
      "Ġwat": 621,
      "Ġwater": 622,
      "Ġjust": 623,
      "Ġra": 624,
      "Ġbea": 625,
      "ĠAn": 626,
      "ntil": 627,
      "Ġpick": 628,
      "Ġrun": 629,
      "ause": 630,
      "ump": 631,
      "Ġcom": 632,
      "Ġuntil": 633,
      "Ġlong": 634,
      "ĠFrom": 635,
      "Ġbeaut": 636,
      "urp": 637,
      "Ġtried": 638,
      "ate": 639,
      "Ġroom": 640,
      "Ġthanked": 641,
      "Ġtry": 642,
      "ady": 643,
      "Ħ¢": 644,
      "âĤ¬âĦ¢": 645,
      "sh": 646,
      "Ġbecause": 647,
      "ank": 648,
      "Ġlots": 649,
      "Ġgard": 650,
      "Ġgarden": 651,
      "ap": 652,
      "ue": 653,
      "Ġcu": 654,
      "ĠP": 655,
      "etter": 656,
      "Ġplayed": 657,
      "Ġeven": 658,
      "ucy": 659,
      "Ġsl": 660,
      "Ġneed": 661,
      "sed": 662,
      "Ġeat": 663,
      "ĠLucy": 664,
      "ty": 665,
      "Ġby": 666,
      "ink": 667,
      "self": 668,
      "Ġbeauti": 669,
      "em": 670,
      "Ġbeautiful": 671,
      "Ġor": 672,
      "Ġcalled": 673,
      "Ġhugged": 674,
      "iz": 675,
      "Ġlaughed": 676,
      "Ġway": 677,
      "Ġbest": 678,
      "ane": 679,
      "ct": 680,
      "Ġend": 681,
      "ĠBo": 682,
      "ĠAnd": 683,
      "Ġflow": 684,
      "ered": 685,
      "ine": 686,
      "Ġsky": 687,
      "lew": 688,
      "Ġbear": 689,
      "rent": 690,
      "imal": 691,
      "Ġtwo": 692,
      "ĠC": 693,
      "Ġanimal": 694,
      "ĠAnna": 695,
      "ft": 696,
      "ia": 697,
      "Ġim": 698,
      "Ġpret": 699,
      "Ġexplore": 700,
      "Ġeach": 701,
      "Ġwo": 702,
      "ĠAs": 703,
      "Ġbox": 704,
      "and": 705,
      "rave": 706,
      "'m": 707,
      "Ġdon": 708,
      "Ġdre": 709,
      "Ġfast": 710,
      "ess": 711,
      "Ġlived": 712,
      "Ġche": 713,
      "Ġbetter": 714,
      "Ġnice": 715,
      "ect": 716,
      "Ġadvent": 717,
      "Ġfam": 718,
      "Ġkept": 719,
      "iny": 720,
      "Ġmany": 721,
      "Ġboth": 722,
      "urpr": 723,
      "Yes": 724,
      "ĠAfter": 725,
      "Let": 726,
      "Ġsurpr": 727,
      "Ġsu": 728,
      "Ġsmile": 729,
      "Ġcle": 730,
      "Ġkind": 731,
      "Ġjump": 732,
      "Ġstay": 733,
      "ĠBob": 734,
      "Ġhard": 735,
      "Ġflew": 736,
      "are": 737,
      "Ġmum": 738,
      "Ġcome": 739,
      "Ġfin": 740,
      "fore": 741,
      "Ġrem": 742,
      "orry": 743,
      "Ġits": 744,
      "Ġfeeling": 745,
      "Ġsoon": 746,
      "What": 747,
      "Ġbrave": 748,
      "urt": 749,
      "Ġte": 750,
      "Ġgl": 751,
      "ĠG": 752,
      "Ġwalked": 753,
      "ised": 754,
      "Ġstill": 755,
      "Ġadventure": 756,
      "Ġfly": 757,
      "Ġfamily": 758,
      "Ġfi": 759,
      "Ġsto": 760,
      "Ġcol": 761,
      "igh": 762,
      "iced": 763,
      "Ġlove": 764,
      "led": 765,
      "Ġbefore": 766,
      "Ġcareful": 767,
      "Ġlearned": 768,
      "Ġfore": 769,
      "It": 770,
      "Ġloud": 771,
      "Ġcon": 772,
      "ople": 773,
      "Ġanimals": 774,
      "Ġow": 775,
      "Ġplace": 776,
      "Ġsorry": 777,
      "ary": 778,
      "Ġwalking": 779,
      "Ġyear": 780,
      "gry": 781,
      "ĠJane": 782,
      "Ġfar": 783,
      "ip": 784,
      "ies": 785,
      "Ġunder": 786,
      "Ġsafe": 787,
      "ool": 788,
      "Ġgoing": 789,
      "ĠWe": 790,
      "ĠMommy": 791,
      "Ġimp": 792,
      "ied": 793,
      "Ġnow": 794,
      "Th": 795,
      "illy": 796,
      "oy": 797,
      "ĠN": 798,
      "Ġstopped": 799,
      "Ġfr": 800,
      "Ġpeople": 801,
      "Ġnoticed": 802,
      "xt": 803,
      "Ġlist": 804,
      "gan": 805,
      "Ġquick": 806,
      "ase": 807,
      "Ġlet": 808,
      "Ġdel": 809,
      "joy": 810,
      "Ġdan": 811,
      "olly": 812,
      "maz": 813,
      "thing": 814,
      "Ġamaz": 815,
      "Ġthree": 816,
      "ished": 817,
      "dded": 818,
      "Ġstor": 819,
      "bbit": 820,
      "ious": 821,
      "Ġopened": 822,
      "ser": 823,
      "Ġey": 824,
      "Ġwind": 825,
      "Ġeveryone": 826,
      "Ġide": 827,
      "Ġma": 828,
      "ĠDad": 829,
      "eet": 830,
      "Ġvo": 831,
      "ange": 832,
      "Ġquickly": 833,
      "ught": 834,
      "ĠJoe": 835,
      "Ġwar": 836,
      "Ġdis": 837,
      "Ġde": 838,
      "Ġred": 839,
      "Ġwhile": 840,
      "Ġenjoy": 841,
      "Ġkeep": 842,
      "Ġrabbit": 843,
      "Ġidea": 844,
      "ting": 845,
      "Ġtow": 846,
      "Ġthr": 847,
      "Ġgreat": 848,
      "ĠMia": 849,
      "Ġground": 850,
      "isy": 851,
      "Ġlooking": 852,
      "hes": 853,
      "Ġwonder": 854,
      "That": 855,
      "ummy": 856,
      "ger": 857,
      "Ġtre": 858,
      "Ġshould": 859,
      "Ġwork": 860,
      "age": 861,
      "Ġdoor": 862,
      "emb": 863,
      "Ġun": 864,
      "Ġshiny": 865,
      "Ġrepl": 866,
      "Ġbeen": 867,
      "Ġchild": 868,
      "Ġtur": 869,
      "Ġvoice": 870,
      "Ġwr": 871,
      "Ġnext": 872,
      "Ġbed": 873,
      "Ġever": 874,
      "ĠR": 875,
      "Ġsn": 876,
      "Ġmor": 877,
      "Ġbright": 878,
      "Ġrememb": 879,
      "ted": 880,
      "Ġpicked": 881,
      "ff": 882,
      "bye": 883,
      "Ġface": 884,
      "Ġeyes": 885,
      "hy": 886,
      "ner": 887,
      "Ġreal": 888,
      "Ġnodded": 889,
      "ak": 890,
      "Ġforest": 891,
      "Ġafter": 892,
      "Ġcuri": 893,
      "Ġnear": 894,
      "Ġwalk": 895,
      "Ġreplied": 896,
      "Ġrock": 897,
      "Ġgoodbye": 898,
      "Ġclean": 899,
      "Ġnoise": 900,
      "Ġdra": 901,
      "Ġbegan": 902,
      "Ġcloser": 903,
      "able": 904,
      "Ġcry": 905,
      "Ġgive": 906,
      "ĠEveryone": 907,
      "Ġpretty": 908,
      "Ġsqu": 909,
      "Ġshare": 910,
      "Ġhands": 911,
      "Ġcurious": 912,
      "Ġgre": 913,
      "bbed": 914,
      "Ġhurt": 915,
      "aisy": 916,
      "Ġper": 917,
      "Ġfood": 918,
      "Ġpain": 919,
      "ock": 920,
      "lie": 921,
      "Ġpic": 922,
      "Ġblue": 923,
      "ĠMolly": 924,
      "irst": 925,
      "Ġbad": 926,
      "Ġwait": 927,
      "Ġapp": 928,
      "Ġsound": 929,
      "Ġdif": 930,
      "Ġwatched": 931,
      "Ġstrong": 932,
      "Ġtruck": 933,
      "day": 934,
      "Ġbook": 935,
      "Ġfish": 936,
      "Ġbeing": 937,
      "Ġright": 938,
      "ĠSue": 939,
      "Ġcolor": 940,
      "be": 941,
      "Ġworld": 942,
      "ired": 943,
      "Ġbit": 944,
      "ĠDaisy": 945,
      "les": 946,
      "Ġwatch": 947,
      "Ġmag": 948,
      "Ġru": 949,
      "imb": 950,
      "ĠSarah": 951,
      "Ġdoll": 952,
      "Ġbecame": 953,
      "Ġshout": 954,
      "Ġclimb": 955,
      "ng": 956,
      "Ġ-": 957,
      "Ġleave": 958,
      "Ġboat": 959,
      "Ġthrough": 960,
      "llow": 961,
      "Ġyell": 962,
      "ull": 963,
      "ster": 964,
      "Ġsure": 965,
      "Ġangry": 966,
      "kay": 967,
      "Ġbutter": 968,
      "Ġstore": 969,
      "No": 970,
      "oon": 971,
      "Ġhere": 972,
      "Ġmouse": 973,
      "ĠSp": 974,
      "Ġnight": 975,
      "Ġyears": 976,
      "Ġhopped": 977,
      "Ġac": 978,
      "Ġwhere": 979,
      "Ġhead": 980,
      "ĠIn": 981,
      "Ġshowed": 982,
      "ream": 983,
      "Ġcont": 984,
      "so": 985,
      "ppy": 986,
      "Ġrain": 987,
      "Ġseen": 988,
      "ached": 989,
      "Ġtou": 990,
      "Ġready": 991,
      "Ġfollow": 992,
      "Ġflowers": 993,
      "Ġtal": 994,
      "Ġfill": 995,
      "Ġdiffe": 996,
      "Ġwhy": 997,
      "Ġwarm": 998,
      "Ġgrabbed": 999,
      "ture": 1000,
      "Ġfirst": 1001,
      "Ġimport": 1002,
      "Ġwaved": 1003,
      "Ġalso": 1004,
      "ol": 1005,
      "ĠEm": 1006,
      "Ġmagic": 1007,
      "Ġhigh": 1008,
      "Ġname": 1009,
      "Thank": 1010,
      "Ġjumped": 1011,
      "leep": 1012,
      "Ġuse": 1013,
      "Ġhappened": 1014,
      "zy": 1015,
      "fully": 1016,
      "Ġdress": 1017,
      "Ġdifferent": 1018,
      "ĠJim": 1019,
      "Ġimportant": 1020,
      "Ġreally": 1021,
      "ĠSally": 1022,
      "Ġlisten": 1023,
      "Ġus": 1024,
      "ized": 1025,
      "Ġflower": 1026,
      "Ġtired": 1027,
      "ount": 1028,
      "Ġste": 1029,
      "Ġhaving": 1030,
      "Ġparent": 1031,
      "ac": 1032,
      "Ġbro": 1033,
      "Ġsweet": 1034,
      "Ġwood": 1035,
      "Ġgame": 1036,
      "Ġgrass": 1037,
      "us": 1038,
      "itc": 1039,
      "ĠTo": 1040,
      "Ġpicture": 1041,
      "Ġrunning": 1042,
      "Ġba": 1043,
      "Ġsurprise": 1044,
      "cket": 1045,
      "Ġperf": 1046,
      "mer": 1047,
      "Ġreached": 1048,
      "Ġdone": 1049,
      "Ġbutterf": 1050,
      "Ġbug": 1051,
      "Ġlady": 1052,
      "ĠFin": 1053,
      "Ġcr": 1054,
      "unny": 1055,
      "Ġshouted": 1056,
      "Ġpat": 1057,
      "Ġhimself": 1058,
      "Ġparents": 1059,
      "\".": 1060,
      "ren": 1061,
      "ather": 1062,
      "lease": 1063,
      "Ġthing": 1064,
      "Ġopen": 1065,
      "ĠSpot": 1066,
      "Ġthink": 1067,
      "Ġdelic": 1068,
      "where": 1069,
      "Ġz": 1070,
      "Ġfro": 1071,
      "Ġtast": 1072,
      "ient": 1073,
      "Ġtell": 1074,
      "Ġhop": 1075,
      "Ġrest": 1076,
      "Ġkid": 1077,
      "Ġenjoyed": 1078,
      "Ġbeh": 1079,
      "ĠAt": 1080,
      "ĠTommy": 1081,
      "Ġstory": 1082,
      "ĠThat": 1083,
      "Ġcarefully": 1084,
      "Ġglad": 1085,
      "Mom": 1086,
      "Ġfilled": 1087,
      "Ġset": 1088,
      "Ġhelped": 1089,
      "Ġsand": 1090,
      "Ġfire": 1091,
      "Ġonly": 1092,
      "ĠTh": 1093,
      "Ġwonderful": 1094,
      "Ġchildren": 1095,
      "imes": 1096,
      "Ġbirds": 1097,
      "more": 1098,
      "Ġanymore": 1099,
      "Ġcla": 1100,
      "lled": 1101,
      "Ġmorning": 1102,
      "Ġgreen": 1103,
      "Ġslow": 1104,
      "th": 1105,
      "ued": 1106,
      "Ġtra": 1107,
      "Ġcreat": 1108,
      "Ġhappily": 1109,
      "ĠGra": 1110,
      "est": 1111,
      "Ġdark": 1112,
      "Ġstick": 1113,
      "Ġworked": 1114,
      "Can": 1115,
      "per": 1116,
      "ation": 1117,
      "ama": 1118,
      "Ġpie": 1119,
      "ssed": 1120,
      "Ġcoming": 1121,
      "Ġtop": 1122,
      "Ġfull": 1123,
      "Ġcatch": 1124,
      "Ġlight": 1125,
      "iss": 1126,
      "Ġsmell": 1127,
      "Ġarri": 1128,
      "ul": 1129,
      "Ġkitc": 1130,
      "Ġkitchen": 1131,
      "Ġask": 1132,
      "Ġworry": 1133,
      "Ġfav": 1134,
      "rel": 1135,
      "Ġmon": 1136,
      "ĠJill": 1137,
      "Ġbrother": 1138,
      "Ġstrange": 1139,
      "Look": 1140,
      "aught": 1141,
      "ĠK": 1142,
      "Ġtall": 1143,
      "Ġbutterfly": 1144,
      "Ġfrog": 1145,
      "Ġam": 1146,
      "Ġdin": 1147,
      "Ġherself": 1148,
      "Ġspot": 1149,
      "Ġunderst": 1150,
      "ken": 1151,
      "aybe": 1152,
      "Ġforg": 1153,
      "Ġable": 1154,
      "ndma": 1155,
      "Ġsurprised": 1156,
      "Ġarrived": 1157,
      "Ġcra": 1158,
      "Ġdri": 1159,
      "ĠLet": 1160,
      "Ġflo": 1161,
      "Ġamazing": 1162,
      "ĠThere": 1163,
      "ards": 1164,
      "Ġate": 1165,
      "Ġmove": 1166,
      "sp": 1167,
      "reed": 1168,
      "oring": 1169,
      "ĠFinally": 1170,
      "Ġbunny": 1171,
      "Ġdr": 1172,
      "Ġsoft": 1173,
      "Ġsat": 1174,
      "Ġmean": 1175,
      "Ġpond": 1176,
      "Ġenough": 1177,
      "sy": 1178,
      "uff": 1179,
      "ined": 1180,
      "Ġokay": 1181,
      "Ġyummy": 1182,
      "Ġused": 1183,
      "Ġfinished": 1184,
      "Don": 1185,
      "Ġless": 1186,
      "Ġdream": 1187,
      "Ġmaking": 1188,
      "Ġkids": 1189,
      "aring": 1190,
      "We": 1191,
      "iver": 1192,
      "Ġmother": 1193,
      "room": 1194,
      "Ġremembered": 1195,
      "Ġhid": 1196,
      "Ġfell": 1197,
      "Ġprin": 1198,
      "Ġlearn": 1199,
      "Ġtrees": 1200,
      "Ġcontin": 1201,
      "Ġhas": 1202,
      "Ġdelicious": 1203,
      "ars": 1204,
      "Ġfew": 1205,
      "Ġperfect": 1206,
      "Ġpiece": 1207,
      "Ġsing": 1208,
      "Ġpre": 1209,
      "ated": 1210,
      "Ġbehind": 1211,
      "ber": 1212,
      "Ġsleep": 1213,
      "ater": 1214,
      "Ġprom": 1215,
      "ign": 1216,
      "Ġstop": 1217,
      "ĠAmy": 1218,
      "Ġswim": 1219,
      "Ġyellow": 1220,
      "'re": 1221,
      "ila": 1222,
      "Ġgetting": 1223,
      "Ġdro": 1224,
      "Ġtrying": 1225,
      "Ġve": 1226,
      "Ġcook": 1227,
      "Ġlion": 1228,
      "Ġanything": 1229,
      "bo": 1230,
      "Ġair": 1231,
      "ĠJen": 1232,
      "Ġgone": 1233,
      "Ġfunny": 1234,
      "ĠNow": 1235,
      "ĠLila": 1236,
      "asure": 1237,
      "Ġown": 1238,
      "Ġrealized": 1239,
      "Ġwoods": 1240,
      "Ġfox": 1241,
      "Ġhair": 1242,
      "Ġcontinued": 1243,
      "red": 1244,
      "sc": 1245,
      "Ġjoy": 1246,
      "Ġslide": 1247,
      "Ġfriendly": 1248,
      "ross": 1249,
      "Ġfair": 1250,
      "ced": 1251,
      "Ġheld": 1252,
      "Ġhole": 1253,
      "Ġpuppy": 1254,
      "Ġfinally": 1255,
      "Ġdraw": 1256,
      "ĠBilly": 1257,
      "Ġleft": 1258,
      "Ġdeep": 1259,
      "gon": 1260,
      "Ġtri": 1261,
      "Ġyes": 1262,
      "Ġwrong": 1263,
      "Ġtouch": 1264,
      "ĠJimmy": 1265,
      "ike": 1266,
      "ling": 1267,
      "Ġmess": 1268,
      "Ġpart": 1269,
      "Ġcold": 1270,
      "Ġgent": 1271,
      "irrel": 1272,
      "Ġneeded": 1273,
      "Ġfollowed": 1274,
      "ually": 1275,
      "ich": 1276,
      "pping": 1277,
      "icy": 1278,
      "ask": 1279,
      "ĠPet": 1280,
      "Ġbow": 1281,
      "Ġcut": 1282,
      "Ġdoing": 1283,
      "Ġfix": 1284,
      "co": 1285,
      "Ġbat": 1286,
      "Ġmoment": 1287,
      "Ġleaves": 1288,
      "'ll": 1289,
      "Ġsec": 1290,
      "Ġagreed": 1291,
      "Ġlooks": 1292,
      "Ġcomp": 1293,
      "Ġblock": 1294,
      "Ġpretend": 1295,
      "av": 1296,
      "Ġel": 1297,
      "Ġbrought": 1298,
      "Ġsquirrel": 1299,
      "air": 1300,
      "Ġice": 1301,
      "oney": 1302,
      "Ġbuy": 1303,
      "ĠMama": 1304,
      "Ġsear": 1305,
      "Ġthank": 1306,
      "Ġour": 1307,
      "ield": 1308,
      "ĠSoon": 1309,
      "Ġwindow": 1310,
      "Ġmagical": 1311,
      "Hell": 1312,
      "Wow": 1313,
      "Ġcool": 1314,
      "Ġbee": 1315,
      "Ġwhite": 1316,
      "Ġbaby": 1317,
      "Ġfavor": 1318,
      "Hello": 1319,
      "Ġhill": 1320,
      "Ġsho": 1321,
      "Ġvis": 1322,
      "Ġstepped": 1323,
      "Ġtight": 1324,
      "Ġlesson": 1325,
      "Ġfavorite": 1326,
      "med": 1327,
      "Ġcake": 1328,
      "Ġmar": 1329,
      "Ġbuild": 1330,
      "ph": 1331,
      "Ġanother": 1332,
      "Ġsomeone": 1333,
      "Ġstayed": 1334,
      "Ġduck": 1335,
      "Ġswing": 1336,
      "ĠMary": 1337,
      "ĠAll": 1338,
      "ash": 1339,
      "Ġflying": 1340,
      "Ġdinner": 1341,
      "sic": 1342,
      "ze": 1343,
      "Ġwasn": 1344,
      "Ġbag": 1345,
      "Ġdoes": 1346,
      "ĠBenny": 1347,
      "Ġmusic": 1348,
      "me": 1349,
      "amp": 1350,
      "Ġeverything": 1351,
      "Ġunderstand": 1352,
      "Ġread": 1353,
      "Ġspark": 1354,
      "Ġelse": 1355,
      "mb": 1356,
      "Ġhun": 1357,
      "Ġspl": 1358,
      "Ġamazed": 1359,
      "Ġmet": 1360,
      "Ġlost": 1361,
      "Ġmat": 1362,
      "cess": 1363,
      "Ġsong": 1364,
      "Ġcand": 1365,
      "Ġclose": 1366,
      "ventually": 1367,
      "Ġfarmer": 1368,
      "itten": 1369,
      "ĠCan": 1370,
      "ĠThis": 1371,
      "lice": 1372,
      "set": 1373,
      "Ġbel": 1374,
      "Ġexploring": 1375,
      "Ġtable": 1376,
      "Ġslowly": 1377,
      "Ġbeach": 1378,
      "Ġlaugh": 1379,
      "iting": 1380,
      "ire": 1381,
      "oom": 1382,
      "Ġbre": 1383,
      "ames": 1384,
      "Ġmost": 1385,
      "Ġballoon": 1386,
      "Ġforgot": 1387,
      "Ġjob": 1388,
      "ctor": 1389,
      "shed": 1390,
      "Ġpet": 1391,
      "Ġbigger": 1392,
      "Ġturn": 1393,
      "Ġpaint": 1394,
      "Ġwished": 1395,
      "ower": 1396,
      "Ġcloud": 1397,
      "row": 1398,
      "Ġlake": 1399,
      "Ġhear": 1400,
      "Ġdir": 1401,
      "Ġbelie": 1402,
      "bby": 1403,
      "ment": 1404,
      "ins": 1405,
      "Ġcount": 1406,
      "Ġmight": 1407,
      "sw": 1408,
      "uffy": 1409,
      "eared": 1410,
      "gle": 1411,
      "Ġfield": 1412,
      "Ġpen": 1413,
      "Ġgu": 1414,
      "ĠDaddy": 1415,
      "Ġbroken": 1416,
      "Ġfur": 1417,
      "ance": 1418,
      "Ġansw": 1419,
      "Ġfaster": 1420,
      "br": 1421,
      "la": 1422,
      "Ġwon": 1423,
      "Ġword": 1424,
      "Ġmust": 1425,
      "Ġpoin": 1426,
      "Ġride": 1427,
      "Ġju": 1428,
      "Ġwaited": 1429,
      "ĠWhat": 1430,
      "Ġacross": 1431,
      "Ġwall": 1432,
      "Ġce": 1433,
      "anc": 1434,
      "Ġarm": 1435,
      "Ġcars": 1436,
      "Ġhold": 1437,
      "Ġjoin": 1438,
      "Ġturned": 1439,
      "Ġplease": 1440,
      "iling": 1441,
      "ast": 1442,
      "ey": 1443,
      "Ġbar": 1444,
      "leph": 1445,
      "os": 1446,
      "zz": 1447,
      "Ġside": 1448,
      "ence": 1449,
      "ĠMum": 1450,
      "Ġneigh": 1451,
      "Ġblack": 1452,
      "Ġtowards": 1453,
      "ĠEmma": 1454,
      "Ġneighb": 1455,
      "ming": 1456,
      "Ġwhe": 1457,
      "Ġhor": 1458,
      "Ġgi": 1459,
      "key": 1460,
      "ĠJust": 1461,
      "Ġsuch": 1462,
      "Ġshared": 1463,
      "Ġadventures": 1464,
      "This": 1465,
      "Ġblocks": 1466,
      "oup": 1467,
      "Ġcried": 1468,
      "Ġpro": 1469,
      "Ġlonger": 1470,
      "Ġlistened": 1471,
      "Ġpromised": 1472,
      "Ġsilly": 1473,
      "Ġcast": 1474,
      "Ġalone": 1475,
      "Ġsecret": 1476,
      "app": 1477,
      "Ġhat": 1478,
      "Ġstu": 1479,
      "Ġsometimes": 1480,
      "ĠFl": 1481,
      "Ġcup": 1482,
      "Ġcheered": 1483,
      "Ġdaddy": 1484,
      "Ġremember": 1485,
      "Oh": 1486,
      "Why": 1487,
      "gg": 1488,
      "Ġpink": 1489,
      "ves": 1490,
      "Ġworried": 1491,
      "Ġsuddenly": 1492,
      "Ġclapped": 1493,
      "Ġvisit": 1494,
      "Ġhot": 1495,
      "Ġhappen": 1496,
      "ĠDo": 1497,
      "Ġorange": 1498,
      "Ġowl": 1499,
      "avy": 1500,
      "iet": 1501,
      "ope": 1502,
      "Ġothers": 1503,
      "Ġdisapp": 1504,
      "Ġclimbed": 1505,
      "Ġbelieve": 1506,
      "ee": 1507,
      "Ġscary": 1508,
      "ney": 1509,
      "ott": 1510,
      "Ġtail": 1511,
      "Ġfloor": 1512,
      "fort": 1513,
      "Ġatt": 1514,
      "Ġseemed": 1515,
      "Ġbooks": 1516,
      "ipped": 1517,
      "Ġsmo": 1518,
      "Ġrelie": 1519,
      "ract": 1520,
      "Ġlone": 1521,
      "Ġtalk": 1522,
      "Ġhungry": 1523,
      "Ġhide": 1524,
      "Ġriver": 1525,
      "Ġplant": 1526,
      "Ġcolour": 1527,
      "Ġtreasure": 1528,
      "Ġwet": 1529,
      "Ġcor": 1530,
      "ĠMr": 1531,
      "ained": 1532,
      "ased": 1533,
      "Ġdanger": 1534,
      "Ġbreak": 1535,
      "Ġsame": 1536,
      "Ġshap": 1537,
      "Ġje": 1538,
      "Ġalong": 1539,
      "Ġdragon": 1540,
      "Ġlonely": 1541,
      "der": 1542,
      "ek": 1543,
      "eddy": 1544,
      "Ġyoung": 1545,
      "chool": 1546,
      "Ġcolors": 1547,
      "Mommy": 1548,
      "Ġhig": 1549,
      "Ġheavy": 1550,
      "less": 1551,
      "orm": 1552,
      "ons": 1553,
      "fused": 1554,
      "Ġhelping": 1555,
      "Ġgrow": 1556,
      "Ġmoral": 1557,
      "itty": 1558,
      "Ġsees": 1559,
      "Ġpulled": 1560,
      "Hi": 1561,
      "Ġ3": 1562,
      "Ġpocket": 1563,
      "Ġquiet": 1564,
      "Ġnearby": 1565,
      "Ġfight": 1566,
      "Ġstone": 1567,
      "Ġclot": 1568,
      "ĠInside": 1569,
      "Ġpictures": 1570,
      "weet": 1571,
      "Ġob": 1572,
      "ries": 1573,
      "Ġshop": 1574,
      "Ġcastle": 1575,
      "Ġrelieved": 1576,
      "Ġclothes": 1577,
      "Ġtreat": 1578,
      "Ġschool": 1579,
      "Ġbott": 1580,
      "Ġsail": 1581,
      "Ġliving": 1582,
      "Ġteac": 1583,
      "elc": 1584,
      "ely": 1585,
      "umb": 1586,
      "Ġcho": 1587,
      "Ġcolorful": 1588,
      "Ġgentle": 1589,
      "ix": 1590,
      "Ġtiny": 1591,
      "Ġeleph": 1592,
      "ucky": 1593,
      "Ġpaper": 1594,
      "Ġelephant": 1595,
      "thy": 1596,
      "Ġmoney": 1597,
      "Ġnap": 1598,
      "Ġdoctor": 1599,
      "Ġjour": 1600,
      "Ġbucket": 1601,
      "ions": 1602,
      "Ġtown": 1603,
      "Ġpieces": 1604,
      "Ġpers": 1605,
      "Ġeverywhere": 1606,
      "Ġhigher": 1607,
      "Ġsit": 1608,
      "Ġpig": 1609,
      "Ġstre": 1610,
      "Ġwithout": 1611,
      "Ġcave": 1612,
      "Ġclosed": 1613,
      "Ġbike": 1614,
      "ister": 1615,
      "ĠWith": 1616,
      "Ġcaught": 1617,
      "Ġsnow": 1618,
      "Ġcookies": 1619,
      "lf": 1620,
      "rew": 1621,
      "Ġstand": 1622,
      "Ġland": 1623,
      "Ġtrain": 1624,
      "Ġmonster": 1625,
      "never": 1626,
      "ored": 1627,
      "Ġrace": 1628,
      "ĠMummy": 1629,
      "Ġsea": 1630,
      "Ġfall": 1631,
      "Ġdes": 1632,
      "Ġlikes": 1633,
      "Ġeating": 1634,
      "Ġfree": 1635,
      "Ġpurp": 1636,
      "Ġexciting": 1637,
      "Ġbus": 1638,
      "Ġblank": 1639,
      "Ġmoved": 1640,
      "Ġdrove": 1641,
      "Ġbath": 1642,
      "The": 1643,
      "uit": 1644,
      "Ġtoday": 1645,
      "Ġheart": 1646,
      "Ġsnack": 1647,
      "bble": 1648,
      "ises": 1649,
      "Ġplan": 1650,
      "Ġwear": 1651,
      "Ġreach": 1652,
      "Ġkite": 1653,
      "ateful": 1654,
      "Ġfairy": 1655,
      "Ġwords": 1656,
      "Ġteacher": 1657,
      "Ġpurple": 1658,
      "Maybe": 1659,
      "oun": 1660,
      "Ġpack": 1661,
      "Ġgrandma": 1662,
      "ĠJenny": 1663,
      "Ġblanket": 1664,
      "Ġsister": 1665,
      "Ġwelc": 1666,
      "Ġhar": 1667,
      "Ġcream": 1668,
      "Ġmin": 1669,
      "Ġnaught": 1670,
      "Ġgrateful": 1671,
      "Ġsmiles": 1672,
      "yard": 1673,
      "Ġmakes": 1674,
      "ÅĵI": 1675,
      "Ġtaking": 1676,
      "aughter": 1677,
      "ere": 1678,
      "pe": 1679,
      "ward": 1680,
      "Ġheal": 1681,
      "ĠTweet": 1682,
      "lebr": 1683,
      "Ġthough": 1684,
      "Ġdisco": 1685,
      "Ġparty": 1686,
      "Ġcandy": 1687,
      "Ġcelebr": 1688,
      "Ġdangerous": 1689,
      "Do": 1690,
      "ining": 1691,
      "vered": 1692,
      "ĠJake": 1693,
      "Ġbackyard": 1694,
      "Ġwoke": 1695,
      "unch": 1696,
      "Ġret": 1697,
      "Ġwise": 1698,
      "Ġmix": 1699,
      "Ġpower": 1700,
      "Ġfruit": 1701,
      "ĠEmily": 1702,
      "Ġjourney": 1703,
      "Ġnaughty": 1704,
      "Ġcour": 1705,
      "Ġcoll": 1706,
      "Ġlaughing": 1707,
      "Ġretur": 1708,
      "ail": 1709,
      "pa": 1710,
      "round": 1711,
      "Ġbite": 1712,
      "Ġbask": 1713,
      "Ġstuck": 1714,
      "Ġupset": 1715,
      "Ġlife": 1716,
      "Ġdirty": 1717,
      "Ġbasket": 1718,
      "Ġgather": 1719,
      "Ġdance": 1720,
      "ĠGrandma": 1721,
      "But": 1722,
      "Ġboun": 1723,
      "pper": 1724,
      "Ġsmart": 1725,
      "Ġwouldn": 1726,
      "ĠCh": 1727,
      "ible": 1728,
      "Ġdist": 1729,
      "igg": 1730,
      "adow": 1731,
      "ĠAlice": 1732,
      "Ġnothing": 1733,
      "Ġmyster": 1734,
      "Ġdelight": 1735,
      "Ġcrying": 1736,
      "ĠFluffy": 1737,
      "cing": 1738,
      "ho": 1739,
      "Ġdays": 1740,
      "Ġsmiling": 1741,
      "Ġapple": 1742,
      "Ġjuice": 1743,
      "Ġcourse": 1744,
      "de": 1745,
      "ier": 1746,
      "Ġcou": 1747,
      "Ġpract": 1748,
      "irt": 1749,
      "Ġswam": 1750,
      "Ġcreature": 1751,
      "Ġshoes": 1752,
      "itch": 1753,
      "Ġinst": 1754,
      "Ġeventually": 1755,
      "Ġlea": 1756,
      "epend": 1757,
      "Ġvill": 1758,
      "Ġtouched": 1759,
      "ĠTogether": 1760,
      "Ġpres": 1761,
      "Ġdaughter": 1762,
      "Ġinc": 1763,
      "Ġwell": 1764,
      "Ġspr": 1765,
      "Ġsunny": 1766,
      "Ġadm": 1767,
      "ountain": 1768,
      "Ġpot": 1769,
      "Ġbush": 1770,
      "Ġcray": 1771,
      "Ġthin": 1772,
      "itting": 1773,
      "Ġimag": 1774,
      "Ġminut": 1775,
      "Ġsign": 1776,
      "Ġwings": 1777,
      "Ġont": 1778,
      "Ġbusy": 1779,
      "ours": 1780,
      "Ġsearch": 1781,
      "Ġonto": 1782,
      "Ġgif": 1783,
      "ness": 1784,
      "Ġsol": 1785,
      "Ġplane": 1786,
      "Ġscream": 1787,
      "Ġbring": 1788,
      "Ġspotted": 1789,
      "ĠPete": 1790,
      "Ġhuge": 1791,
      "Ġpeace": 1792,
      "Ġpath": 1793,
      "Ġbelong": 1794,
      "rot": 1795,
      "ndpa": 1796,
      "Ġmark": 1797,
      "Ġgames": 1798,
      "Ġwhist": 1799,
      "Ġpushed": 1800,
      "Ġtrou": 1801,
      "Ġtasty": 1802,
      "Ġsinging": 1803,
      "orrow": 1804,
      "eter": 1805,
      "Ġwants": 1806,
      "Ġspent": 1807,
      "Ġexplained": 1808,
      "Ġpull": 1809,
      "Ġdolls": 1810,
      "Ġsmooth": 1811,
      "Ġpresent": 1812,
      "cle": 1813,
      "Ġcir": 1814,
      "Ġsack": 1815,
      "Ġear": 1816,
      "Ġshining": 1817,
      "Ġpast": 1818,
      "Ġwatching": 1819,
      "Ġprincess": 1820,
      "Ġswimming": 1821,
      "ped": 1822,
      "Ġstars": 1823,
      "Ġkitten": 1824,
      "Ġmeet": 1825,
      "Ġsunsh": 1826,
      "andy": 1827,
      "Ġforever": 1828,
      "Ġcraw": 1829,
      "Ġsunshine": 1830,
      "fish": 1831,
      "Ġsuc": 1832,
      "Ġsitting": 1833,
      "Ġbreat": 1834,
      "Ġfig": 1835,
      "Ġsang": 1836,
      "outh": 1837,
      "Ġpol": 1838,
      "Ġintere": 1839,
      "Ġstories": 1840,
      "Ġbroke": 1841,
      "Ġinterest": 1842,
      "ead": 1843,
      "ond": 1844,
      "Ġfit": 1845,
      "ont": 1846,
      "Ġfront": 1847,
      "Ġrocks": 1848,
      "Ġbowl": 1849,
      "Ġclouds": 1850,
      "Ġneighbor": 1851,
      "Ġwelcome": 1852,
      "Okay": 1853,
      "Ġ'": 1854,
      "Ġdry": 1855,
      "cked": 1856,
      "Ġcozy": 1857,
      "Ġdanced": 1858,
      "Ġshapes": 1859,
      "Ġstreet": 1860,
      "bow": 1861,
      "Ġwin": 1862,
      "ĠSt": 1863,
      "ang": 1864,
      "Ġyard": 1865,
      "Ġlift": 1866,
      "Ġwhich": 1867,
      "Ġrolled": 1868,
      "Ġowner": 1869,
      "Ġappeared": 1870,
      "Ġtasted": 1871,
      "Ġmonkey": 1872,
      "'d": 1873,
      "ass": 1874,
      "Ġlate": 1875,
      "Ġlunch": 1876,
      "Ġbrown": 1877,
      "ize": 1878,
      "Ġplaces": 1879,
      "ocked": 1880,
      "Ġrainbow": 1881,
      "Ġhorse": 1882,
      "Sure": 1883,
      "og": 1884,
      "Ġsort": 1885,
      "ĠTheir": 1886,
      "alm": 1887,
      "Ġwhole": 1888,
      "Ġwondered": 1889,
      "Ġacc": 1890,
      "Ġdriver": 1891,
      "ĠPeter": 1892,
      "Ġarms": 1893,
      "Ġsur": 1894,
      "Ġmouth": 1895,
      "Ġeas": 1896,
      "Ġegg": 1897,
      "Ġcarry": 1898,
      "ten": 1899,
      "Ġlar": 1900,
      "Ġround": 1901,
      "Ġforget": 1902,
      "Ġshook": 1903,
      "Ġnoises": 1904,
      "Ġkey": 1905,
      "Ġasks": 1906,
      "Ġdrink": 1907,
      "Ġdropped": 1908,
      "Ġcorner": 1909,
      "Ġvillage": 1910,
      "Ġact": 1911,
      "Ġsug": 1912,
      "Ġwish": 1913,
      "read": 1914,
      "Ġmine": 1915,
      "ĠBe": 1916,
      "Ġresp": 1917,
      "Ġquest": 1918,
      "izz": 1919,
      "Ġsearched": 1920,
      "cer": 1921,
      "sie": 1922,
      "Ġfence": 1923,
      "ens": 1924,
      "Ġeag": 1925,
      "ĠLittle": 1926,
      "Ġspicy": 1927,
      "Ġcarrot": 1928,
      "ĠSammy": 1929,
      "Ġfoot": 1930,
      "Ġchest": 1931,
      "thday": 1932,
      "fortable": 1933,
      "Ġbought": 1934,
      "ider": 1935,
      "Ġthrew": 1936,
      "Ġnet": 1937,
      "Ġspin": 1938,
      "Ġlovely": 1939,
      "Ġconfused": 1940,
      "Ġcollect": 1941,
      "Ġinteresting": 1942,
      "Ġlarge": 1943,
      "ground": 1944,
      "ove": 1945,
      "llo": 1946,
      "Ġlem": 1947,
      "blem": 1948,
      "gest": 1949,
      "Ġmummy": 1950,
      "ĠKitty": 1951,
      "aur": 1952,
      "man": 1953,
      "Ġent": 1954,
      "Ġwild": 1955,
      "let": 1956,
      "Ġemb": 1957,
      "Ġshy": 1958,
      "Ġjun": 1959,
      "Ġspoon": 1960,
      "ĠFred": 1961,
      "Ġchair": 1962,
      "Ġpass": 1963,
      "Ġjoke": 1964,
      "Ġfarm": 1965,
      "Ġmail": 1966,
      "board": 1967,
      "Ġproblem": 1968,
      "Hey": 1969,
      "gged": 1970,
      "Ġben": 1971,
      "ity": 1972,
      "Ġoce": 1973,
      "arra": 1974,
      "ĠLater": 1975,
      "Ġleg": 1976,
      "oph": 1977,
      "Ġhoped": 1978,
      "Ġembarra": 1979,
      "Ġocean": 1980,
      "cor": 1981,
      "dle": 1982,
      "Ġign": 1983,
      "Ġap": 1984,
      "Ġmiss": 1985,
      "Ġgroup": 1986,
      "ĠRo": 1987,
      "Ġbugs": 1988,
      "scap": 1989,
      "Ġanswer": 1990,
      "ancy": 1991,
      "Ġbottle": 1992,
      "den": 1993,
      "Ġaf": 1994,
      "Ġblew": 1995,
      "idge": 1996,
      "anut": 1997,
      "anch": 1998,
      "Ġkick": 1999
    },
    "merges": [
      [
        "h",
        "e"
      ],
      [
        "Ġ",
        "t"
      ],
      [
        "Ġ",
        "a"
      ],
      [
        "Ġ",
        "s"
      ],
      [
        "Ġ",
        "w"
      ],
      [
        "n",
        "d"
      ],
      [
        "Ġt",
        "he"
      ],
      [
        "e",
        "d"
      ],
      [
        "č",
        "Ċ"
      ],
      [
        "i",
        "n"
      ],
      [
        "Ġa",
        "nd"
      ],
      [
        "Ġ",
        "b"
      ],
      [
        "Ġt",
        "o"
      ],
      [
        "Ġw",
        "a"
      ],
      [
        "Ġ",
        "h"
      ],
      [
        "r",
        "e"
      ],
      [
        "i",
        "t"
      ],
      [
        "Ġ",
        "f"
      ],
      [
        "o",
        "u"
      ],
      [
        "Ġ",
        "čĊ"
      ],
      [
        "e",
        "r"
      ],
      [
        "Ġ",
        "l"
      ],
      [
        "Ġ",
        "he"
      ],
      [
        "Ġwa",
        "s"
      ],
      [
        "Ġ",
        "c"
      ],
      [
        "Ġ",
        "T"
      ],
      [
        "Ġ",
        "d"
      ],
      [
        "Ġ",
        "m"
      ],
      [
        "Ġ",
        "p"
      ],
      [
        "Ġ",
        "o"
      ],
      [
        "in",
        "g"
      ],
      [
        "o",
        "m"
      ],
      [
        "a",
        "r"
      ],
      [
        "a",
        "y"
      ],
      [
        "i",
        "s"
      ],
      [
        "Ġ",
        "g"
      ],
      [
        "ĠT",
        "he"
      ],
      [
        "i",
        "d"
      ],
      [
        "a",
        "t"
      ],
      [
        "l",
        "l"
      ],
      [
        "e",
        "n"
      ],
      [
        "Ġ",
        "S"
      ],
      [
        "Ġs",
        "a"
      ],
      [
        "n",
        "e"
      ],
      [
        "Ġh",
        "a"
      ],
      [
        "i",
        "m"
      ],
      [
        "l",
        "e"
      ],
      [
        "a",
        "n"
      ],
      [
        "o",
        "r"
      ],
      [
        "Ġ",
        "it"
      ],
      [
        "Ġt",
        "h"
      ],
      [
        "Ġ",
        "H"
      ],
      [
        "e",
        "t"
      ],
      [
        "i",
        "l"
      ],
      [
        "o",
        "n"
      ],
      [
        "Ġhe",
        "r"
      ],
      [
        "i",
        "r"
      ],
      [
        "v",
        "er"
      ],
      [
        "ĠH",
        "e"
      ],
      [
        "Ġ",
        "\""
      ],
      [
        "Ġ",
        "in"
      ],
      [
        "Ġ",
        "e"
      ],
      [
        "Ġ",
        "n"
      ],
      [
        "o",
        "t"
      ],
      [
        "ĠS",
        "he"
      ],
      [
        "l",
        "d"
      ],
      [
        "u",
        "t"
      ],
      [
        "o",
        "w"
      ],
      [
        "Ġ",
        "u"
      ],
      [
        "Ġb",
        "e"
      ],
      [
        "c",
        "k"
      ],
      [
        "c",
        "e"
      ],
      [
        "Ġsa",
        "id"
      ],
      [
        "Ġs",
        "he"
      ],
      [
        "i",
        "g"
      ],
      [
        "Ġs",
        "t"
      ],
      [
        "o",
        "o"
      ],
      [
        "Ġs",
        "o"
      ],
      [
        "p",
        "p"
      ],
      [
        "Ġ",
        "r"
      ],
      [
        "Ġ",
        "O"
      ],
      [
        "a",
        "m"
      ],
      [
        "Ġ",
        "y"
      ],
      [
        "k",
        "e"
      ],
      [
        "Ġo",
        "f"
      ],
      [
        "v",
        "e"
      ],
      [
        "it",
        "h"
      ],
      [
        "s",
        "t"
      ],
      [
        "k",
        "ed"
      ],
      [
        "Ġh",
        "is"
      ],
      [
        "ver",
        "y"
      ],
      [
        "Ġw",
        "ith"
      ],
      [
        "Ġ",
        "I"
      ],
      [
        "r",
        "i"
      ],
      [
        "Ġd",
        "ay"
      ],
      [
        "ĠThe",
        "y"
      ],
      [
        "Ġ",
        "L"
      ],
      [
        "n",
        "t"
      ],
      [
        "a",
        "d"
      ],
      [
        "Ġp",
        "l"
      ],
      [
        "Ġu",
        "p"
      ],
      [
        "Ġth",
        "at"
      ],
      [
        "Ġha",
        "d"
      ],
      [
        "Ġy",
        "ou"
      ],
      [
        "il",
        "y"
      ],
      [
        "Ġ",
        "B"
      ],
      [
        "it",
        "t"
      ],
      [
        "ou",
        "ld"
      ],
      [
        "e",
        "l"
      ],
      [
        "en",
        "t"
      ],
      [
        "Ġo",
        "n"
      ],
      [
        "e",
        "s"
      ],
      [
        "Ġpl",
        "ay"
      ],
      [
        "Ġf",
        "or"
      ],
      [
        "Ġthe",
        "y"
      ],
      [
        "Ġw",
        "e"
      ],
      [
        "m",
        "y"
      ],
      [
        "itt",
        "le"
      ],
      [
        "ou",
        "nd"
      ],
      [
        "u",
        "n"
      ],
      [
        "ou",
        "t"
      ],
      [
        "Ġl",
        "ittle"
      ],
      [
        "'",
        "s"
      ],
      [
        "c",
        "h"
      ],
      [
        "Ġm",
        "om"
      ],
      [
        "Ġha",
        "pp"
      ],
      [
        "l",
        "y"
      ],
      [
        "im",
        "e"
      ],
      [
        "Ġthe",
        "re"
      ],
      [
        "he",
        "r"
      ],
      [
        "Ġt",
        "ime"
      ],
      [
        "Ġ",
        "M"
      ],
      [
        "Ġ",
        "J"
      ],
      [
        "a",
        "ll"
      ],
      [
        "ĠL",
        "ily"
      ],
      [
        "Ġs",
        "m"
      ],
      [
        "Ġs",
        "h"
      ],
      [
        "Ġ",
        "very"
      ],
      [
        "Ġl",
        "i"
      ],
      [
        "h",
        "t"
      ],
      [
        "Ġw",
        "h"
      ],
      [
        "Ġ",
        "ne"
      ],
      [
        "Ġ",
        "re"
      ],
      [
        "om",
        "e"
      ],
      [
        "a",
        "l"
      ],
      [
        "Ġwa",
        "nt"
      ],
      [
        "s",
        "e"
      ],
      [
        "Ġd",
        "o"
      ],
      [
        "e",
        "nd"
      ],
      [
        "a",
        "ck"
      ],
      [
        "Ġ",
        "k"
      ],
      [
        "Ġ",
        "A"
      ],
      [
        "Ġa",
        "s"
      ],
      [
        "ĠO",
        "n"
      ],
      [
        "Ġhapp",
        "y"
      ],
      [
        "Ġb",
        "ig"
      ],
      [
        "Ġa",
        "n"
      ],
      [
        "Ġb",
        "ut"
      ],
      [
        "ĠOn",
        "ce"
      ],
      [
        "r",
        "a"
      ],
      [
        "Ġsa",
        "w"
      ],
      [
        "ĠO",
        "ne"
      ],
      [
        "ri",
        "end"
      ],
      [
        "Ġf",
        "riend"
      ],
      [
        "v",
        "ed"
      ],
      [
        "Ġl",
        "oo"
      ],
      [
        "'",
        "t"
      ],
      [
        "ir",
        "l"
      ],
      [
        "o",
        "re"
      ],
      [
        "a",
        "ke"
      ],
      [
        "e",
        "c"
      ],
      [
        "u",
        "g"
      ],
      [
        "Ġg",
        "irl"
      ],
      [
        "ĠI",
        "t"
      ],
      [
        "id",
        "e"
      ],
      [
        "t",
        "er"
      ],
      [
        "Ġb",
        "o"
      ],
      [
        "Ġwe",
        "re"
      ],
      [
        "Ġe",
        "x"
      ],
      [
        "i",
        "ll"
      ],
      [
        "Ġup",
        "on"
      ],
      [
        "r",
        "y"
      ],
      [
        "Ġh",
        "im"
      ],
      [
        "Ġn",
        "ot"
      ],
      [
        "Ġl",
        "o"
      ],
      [
        "Ġg",
        "o"
      ],
      [
        "!",
        "\""
      ],
      [
        "Ġ",
        "j"
      ],
      [
        "ar",
        "d"
      ],
      [
        ".",
        "\""
      ],
      [
        "Ġ",
        "out"
      ],
      [
        "ĠT",
        "im"
      ],
      [
        "Ġs",
        "p"
      ],
      [
        "f",
        "u"
      ],
      [
        "Ġwant",
        "ed"
      ],
      [
        "Ġa",
        "r"
      ],
      [
        "Ġc",
        "ould"
      ],
      [
        "w",
        "ay"
      ],
      [
        "he",
        "n"
      ],
      [
        "Ġto",
        "o"
      ],
      [
        "u",
        "r"
      ],
      [
        "Ġ",
        "is"
      ],
      [
        "Ã",
        "¢"
      ],
      [
        "â",
        "Ĥ"
      ],
      [
        "âĤ",
        "¬"
      ],
      [
        "h",
        "ing"
      ],
      [
        "Ġs",
        "e"
      ],
      [
        "i",
        "nd"
      ],
      [
        "a",
        "in"
      ],
      [
        "i",
        "c"
      ],
      [
        "ar",
        "t"
      ],
      [
        "Ġa",
        "t"
      ],
      [
        "Ġa",
        "ll"
      ],
      [
        "he",
        "d"
      ],
      [
        "Ġw",
        "ent"
      ],
      [
        "u",
        "m"
      ],
      [
        "il",
        "ed"
      ],
      [
        "fu",
        "l"
      ],
      [
        "ig",
        "ht"
      ],
      [
        "r",
        "om"
      ],
      [
        "Ġsm",
        "iled"
      ],
      [
        "l",
        "p"
      ],
      [
        "Ġar",
        "ound"
      ],
      [
        "Ġ",
        "W"
      ],
      [
        "Ġthe",
        "m"
      ],
      [
        "Ġfriend",
        "s"
      ],
      [
        "Ġhe",
        "lp"
      ],
      [
        "Ġn",
        "am"
      ],
      [
        "ou",
        "g"
      ],
      [
        "oo",
        "d"
      ],
      [
        "Ġb",
        "ack"
      ],
      [
        "Ġd",
        "id"
      ],
      [
        "Ġc",
        "l"
      ],
      [
        "ar",
        "k"
      ],
      [
        "om",
        "et"
      ],
      [
        "s",
        "s"
      ],
      [
        "Ġas",
        "ked"
      ],
      [
        "?",
        "\""
      ],
      [
        "Ġthe",
        "ir"
      ],
      [
        "Ġc",
        "a"
      ],
      [
        "Ġha",
        "ve"
      ],
      [
        "Ġf",
        "un"
      ],
      [
        "Ġc",
        "an"
      ],
      [
        "Ġloo",
        "ked"
      ],
      [
        "ĠB",
        "ut"
      ],
      [
        "Ġs",
        "omet"
      ],
      [
        "Ġbo",
        "y"
      ],
      [
        "Ġl",
        "e"
      ],
      [
        "o",
        "ne"
      ],
      [
        "s",
        "ide"
      ],
      [
        "Ġst",
        "art"
      ],
      [
        "Ġa",
        "l"
      ],
      [
        "u",
        "re"
      ],
      [
        "el",
        "t"
      ],
      [
        "Ġf",
        "e"
      ],
      [
        "Ġw",
        "ould"
      ],
      [
        "Ġf",
        "elt"
      ],
      [
        "i",
        "ck"
      ],
      [
        "o",
        "p"
      ],
      [
        "Ġlo",
        "ved"
      ],
      [
        "Ġnam",
        "ed"
      ],
      [
        "ĠT",
        "om"
      ],
      [
        "Ġn",
        "o"
      ],
      [
        "d",
        "d"
      ],
      [
        "g",
        "et"
      ],
      [
        "Ġ",
        "E"
      ],
      [
        "Ġa",
        "re"
      ],
      [
        "am",
        "e"
      ],
      [
        "it",
        "ed"
      ],
      [
        "Ġex",
        "c"
      ],
      [
        "ĠTim",
        "my"
      ],
      [
        "Ġm",
        "an"
      ],
      [
        "i",
        "e"
      ],
      [
        "ĠB",
        "en"
      ],
      [
        "re",
        "e"
      ],
      [
        "Ġsomet",
        "hing"
      ],
      [
        "k",
        "ing"
      ],
      [
        "i",
        "ce"
      ],
      [
        "on",
        "g"
      ],
      [
        "Ġw",
        "or"
      ],
      [
        "Ġli",
        "ke"
      ],
      [
        "Ġs",
        "c"
      ],
      [
        "Ġb",
        "ir"
      ],
      [
        "Ġstart",
        "ed"
      ],
      [
        "r",
        "o"
      ],
      [
        "Ġs",
        "ome"
      ],
      [
        "get",
        "her"
      ],
      [
        "Ġa",
        "g"
      ],
      [
        "Ġbir",
        "d"
      ],
      [
        "Ġm",
        "e"
      ],
      [
        "Ġf",
        "a"
      ],
      [
        "Ġr",
        "o"
      ],
      [
        "Ġse",
        "e"
      ],
      [
        "ad",
        "e"
      ],
      [
        "a",
        "g"
      ],
      [
        "ow",
        "n"
      ],
      [
        "pp",
        "ed"
      ],
      [
        "Ġa",
        "way"
      ],
      [
        "Ġexc",
        "ited"
      ],
      [
        "Ġto",
        "gether"
      ],
      [
        "p",
        "l"
      ],
      [
        "ing",
        "s"
      ],
      [
        "Ġr",
        "an"
      ],
      [
        "ou",
        "d"
      ],
      [
        "Ġto",
        "y"
      ],
      [
        "Ġwh",
        "at"
      ],
      [
        "Ġthe",
        "n"
      ],
      [
        "ar",
        "ed"
      ],
      [
        "Ġm",
        "ake"
      ],
      [
        "Ġm",
        "u"
      ],
      [
        "b",
        "le"
      ],
      [
        "i",
        "f"
      ],
      [
        "Ġh",
        "ome"
      ],
      [
        "Ġ",
        "F"
      ],
      [
        "Ġl",
        "a"
      ],
      [
        "Y",
        "ou"
      ],
      [
        "Ġc",
        "h"
      ],
      [
        "all",
        "y"
      ],
      [
        "ĠS",
        "u"
      ],
      [
        "Ġm",
        "ade"
      ],
      [
        "Ġwa",
        "l"
      ],
      [
        "q",
        "u"
      ],
      [
        "h",
        "at"
      ],
      [
        "Ġag",
        "ain"
      ],
      [
        "a",
        "s"
      ],
      [
        "Ġf",
        "ound"
      ],
      [
        "Ġp",
        "ark"
      ],
      [
        "Ġf",
        "rom"
      ],
      [
        ",",
        "\""
      ],
      [
        "Ġd",
        "ec"
      ],
      [
        "e",
        "ll"
      ],
      [
        "Ġw",
        "hen"
      ],
      [
        "Ġne",
        "w"
      ],
      [
        "Ġb",
        "r"
      ],
      [
        "ou",
        "s"
      ],
      [
        "Ġc",
        "o"
      ],
      [
        "e",
        "p"
      ],
      [
        "Ġwh",
        "o"
      ],
      [
        "ĠJ",
        "o"
      ],
      [
        "oug",
        "ht"
      ],
      [
        "Ġe",
        "very"
      ],
      [
        "Ġo",
        "t"
      ],
      [
        "Ġg",
        "et"
      ],
      [
        "Ġp",
        "ut"
      ],
      [
        "Ġ",
        "D"
      ],
      [
        "Ġplay",
        "ing"
      ],
      [
        "Ġot",
        "her"
      ],
      [
        "Ġo",
        "ne"
      ],
      [
        "ĠS",
        "o"
      ],
      [
        "Ġsa",
        "d"
      ],
      [
        "i",
        "le"
      ],
      [
        "id",
        "ed"
      ],
      [
        "Ġp",
        "r"
      ],
      [
        "Ġdec",
        "ided"
      ],
      [
        "Ġf",
        "l"
      ],
      [
        "Ġc",
        "ar"
      ],
      [
        "Ġo",
        "ld"
      ],
      [
        "a",
        "ve"
      ],
      [
        "Ġ",
        "v"
      ],
      [
        "Ġb",
        "u"
      ],
      [
        "Ġg",
        "ot"
      ],
      [
        "Ġh",
        "ug"
      ],
      [
        "b",
        "b"
      ],
      [
        "Ġs",
        "ay"
      ],
      [
        "Ġg",
        "ood"
      ],
      [
        "Ġth",
        "ings"
      ],
      [
        "a",
        "ch"
      ],
      [
        "ri",
        "ed"
      ],
      [
        "n",
        "y"
      ],
      [
        "u",
        "st"
      ],
      [
        "ĠM",
        "om"
      ],
      [
        "Ġth",
        "an"
      ],
      [
        "ec",
        "i"
      ],
      [
        "ou",
        "se"
      ],
      [
        "Ġbe",
        "c"
      ],
      [
        "Ġfe",
        "el"
      ],
      [
        "Ġf",
        "ind"
      ],
      [
        "Ġd",
        "own"
      ],
      [
        "dd",
        "en"
      ],
      [
        "Ġ",
        "ke"
      ],
      [
        "Ġs",
        "w"
      ],
      [
        "Ġk",
        "n"
      ],
      [
        "Ġc",
        "ame"
      ],
      [
        "eci",
        "al"
      ],
      [
        "Ġsp",
        "ecial"
      ],
      [
        "way",
        "s"
      ],
      [
        "ĠE",
        "very"
      ],
      [
        "Ġb",
        "l"
      ],
      [
        "ĠJ",
        "ack"
      ],
      [
        "ĠW",
        "hen"
      ],
      [
        "dden",
        "ly"
      ],
      [
        "Ġt",
        "ree"
      ],
      [
        "Ġa",
        "b"
      ],
      [
        "nd",
        "er"
      ],
      [
        "Ġal",
        "ways"
      ],
      [
        "Ġl",
        "ot"
      ],
      [
        "Ġsc",
        "ared"
      ],
      [
        "Ġk",
        "ne"
      ],
      [
        "Ġp",
        "o"
      ],
      [
        "c",
        "hed"
      ],
      [
        "Ġt",
        "ake"
      ],
      [
        "Ġth",
        "ought"
      ],
      [
        "Ġin",
        "t"
      ],
      [
        "oo",
        "k"
      ],
      [
        "an",
        "t"
      ],
      [
        "is",
        "t"
      ],
      [
        "Ġg",
        "ra"
      ],
      [
        "ou",
        "r"
      ],
      [
        "g",
        "e"
      ],
      [
        "it",
        "e"
      ],
      [
        "Ġab",
        "out"
      ],
      [
        "Ġ",
        "Ã¢"
      ],
      [
        "Ġca",
        "re"
      ],
      [
        "Ġd",
        "ad"
      ],
      [
        "Ġg",
        "r"
      ],
      [
        "Ġex",
        "pl"
      ],
      [
        "Ġtoo",
        "k"
      ],
      [
        "Ġloo",
        "k"
      ],
      [
        "en",
        "ed"
      ],
      [
        "Ġdid",
        "n"
      ],
      [
        "f",
        "e"
      ],
      [
        "is",
        "e"
      ],
      [
        "Ġli",
        "ked"
      ],
      [
        "Ġla",
        "ug"
      ],
      [
        "Å",
        "ĵ"
      ],
      [
        "f",
        "ter"
      ],
      [
        "u",
        "ck"
      ],
      [
        "Ġ",
        "You"
      ],
      [
        "m",
        "a"
      ],
      [
        "Ġp",
        "e"
      ],
      [
        "re",
        "at"
      ],
      [
        "Ġt",
        "a"
      ],
      [
        "Ġp",
        "a"
      ],
      [
        "Ġkne",
        "w"
      ],
      [
        "v",
        "en"
      ],
      [
        "Ġdo",
        "g"
      ],
      [
        "Ġh",
        "o"
      ],
      [
        "Ġm",
        "ore"
      ],
      [
        "Ġyou",
        "r"
      ],
      [
        "Ġout",
        "side"
      ],
      [
        "Ġt",
        "w"
      ],
      [
        "ĠSu",
        "ddenly"
      ],
      [
        "er",
        "s"
      ],
      [
        "Ġc",
        "at"
      ],
      [
        "Ġs",
        "k"
      ],
      [
        "Ġp",
        "u"
      ],
      [
        "n",
        "ed"
      ],
      [
        "Ġcould",
        "n"
      ],
      [
        "i",
        "ve"
      ],
      [
        "Ġ",
        "en"
      ],
      [
        "Ġh",
        "ow"
      ],
      [
        "Ġm",
        "y"
      ],
      [
        "a",
        "ce"
      ],
      [
        "Ġ",
        "qu"
      ],
      [
        "Ġmu",
        "ch"
      ],
      [
        "ll",
        "y"
      ],
      [
        "b",
        "y"
      ],
      [
        "g",
        "ed"
      ],
      [
        "u",
        "c"
      ],
      [
        "Ġs",
        "un"
      ],
      [
        "Ġm",
        "o"
      ],
      [
        "ĠH",
        "er"
      ],
      [
        "re",
        "t"
      ],
      [
        "i",
        "on"
      ],
      [
        "Ġne",
        "ver"
      ],
      [
        "Ġint",
        "o"
      ],
      [
        "Ġt",
        "r"
      ],
      [
        "ar",
        "a"
      ],
      [
        "ĠS",
        "am"
      ],
      [
        "ĠM",
        "a"
      ],
      [
        "Ġo",
        "ver"
      ],
      [
        "Ġan",
        "y"
      ],
      [
        "Ġj",
        "o"
      ],
      [
        "Ġkn",
        "ow"
      ],
      [
        "Ġpr",
        "oud"
      ],
      [
        "Ġcl",
        "o"
      ],
      [
        "Ġle",
        "ar"
      ],
      [
        "Ġsh",
        "ow"
      ],
      [
        "Ġth",
        "is"
      ],
      [
        "ĠH",
        "is"
      ],
      [
        "Ġst",
        "r"
      ],
      [
        "oug",
        "h"
      ],
      [
        "h",
        "n"
      ],
      [
        "Ġ",
        "if"
      ],
      [
        "Ġhe",
        "ard"
      ],
      [
        "Ġmom",
        "my"
      ],
      [
        "Ġsay",
        "s"
      ],
      [
        "p",
        "t"
      ],
      [
        "v",
        "ent"
      ],
      [
        "is",
        "h"
      ],
      [
        "Ġin",
        "side"
      ],
      [
        "ĠJo",
        "hn"
      ],
      [
        "n",
        "ing"
      ],
      [
        "ĠS",
        "ara"
      ],
      [
        "a",
        "u"
      ],
      [
        "Ġc",
        "all"
      ],
      [
        "Ġa",
        "d"
      ],
      [
        "Ġo",
        "p"
      ],
      [
        "ot",
        "h"
      ],
      [
        "he",
        "re"
      ],
      [
        "Ġw",
        "ill"
      ],
      [
        "Ġh",
        "ouse"
      ],
      [
        "Ġf",
        "o"
      ],
      [
        "ĠThe",
        "n"
      ],
      [
        "il",
        "d"
      ],
      [
        "d",
        "y"
      ],
      [
        "Ġb",
        "all"
      ],
      [
        "e",
        "ar"
      ],
      [
        "Ġha",
        "nd"
      ],
      [
        "Ġto",
        "ld"
      ],
      [
        "Ġof",
        "f"
      ],
      [
        "or",
        "t"
      ],
      [
        "s",
        "el"
      ],
      [
        "Ġg",
        "ave"
      ],
      [
        "v",
        "ing"
      ],
      [
        "Ġsm",
        "all"
      ],
      [
        "Ġtoy",
        "s"
      ],
      [
        "ĠMa",
        "x"
      ],
      [
        "ot",
        "her"
      ],
      [
        "âĤ¬",
        "â"
      ],
      [
        "n",
        "a"
      ],
      [
        "Ġwa",
        "t"
      ],
      [
        "Ġwa",
        "ter"
      ],
      [
        "Ġj",
        "ust"
      ],
      [
        "Ġr",
        "a"
      ],
      [
        "Ġbe",
        "a"
      ],
      [
        "ĠA",
        "n"
      ],
      [
        "nt",
        "il"
      ],
      [
        "Ġp",
        "ick"
      ],
      [
        "Ġr",
        "un"
      ],
      [
        "au",
        "se"
      ],
      [
        "um",
        "p"
      ],
      [
        "Ġc",
        "om"
      ],
      [
        "Ġu",
        "ntil"
      ],
      [
        "Ġl",
        "ong"
      ],
      [
        "ĠF",
        "rom"
      ],
      [
        "Ġbea",
        "ut"
      ],
      [
        "ur",
        "p"
      ],
      [
        "Ġt",
        "ried"
      ],
      [
        "at",
        "e"
      ],
      [
        "Ġro",
        "om"
      ],
      [
        "Ġthan",
        "ked"
      ],
      [
        "Ġt",
        "ry"
      ],
      [
        "ad",
        "y"
      ],
      [
        "Ħ",
        "¢"
      ],
      [
        "âĤ¬â",
        "Ħ¢"
      ],
      [
        "s",
        "h"
      ],
      [
        "Ġbec",
        "ause"
      ],
      [
        "an",
        "k"
      ],
      [
        "Ġlot",
        "s"
      ],
      [
        "Ġg",
        "ard"
      ],
      [
        "Ġgard",
        "en"
      ],
      [
        "a",
        "p"
      ],
      [
        "u",
        "e"
      ],
      [
        "Ġc",
        "u"
      ],
      [
        "Ġ",
        "P"
      ],
      [
        "et",
        "ter"
      ],
      [
        "Ġplay",
        "ed"
      ],
      [
        "Ġe",
        "ven"
      ],
      [
        "uc",
        "y"
      ],
      [
        "Ġs",
        "l"
      ],
      [
        "Ġne",
        "ed"
      ],
      [
        "s",
        "ed"
      ],
      [
        "Ġe",
        "at"
      ],
      [
        "ĠL",
        "ucy"
      ],
      [
        "t",
        "y"
      ],
      [
        "Ġb",
        "y"
      ],
      [
        "in",
        "k"
      ],
      [
        "sel",
        "f"
      ],
      [
        "Ġbeaut",
        "i"
      ],
      [
        "e",
        "m"
      ],
      [
        "Ġbeauti",
        "ful"
      ],
      [
        "Ġo",
        "r"
      ],
      [
        "Ġcall",
        "ed"
      ],
      [
        "Ġhug",
        "ged"
      ],
      [
        "i",
        "z"
      ],
      [
        "Ġlaug",
        "hed"
      ],
      [
        "Ġwa",
        "y"
      ],
      [
        "Ġbe",
        "st"
      ],
      [
        "a",
        "ne"
      ],
      [
        "c",
        "t"
      ],
      [
        "Ġe",
        "nd"
      ],
      [
        "ĠB",
        "o"
      ],
      [
        "ĠA",
        "nd"
      ],
      [
        "Ġfl",
        "ow"
      ],
      [
        "er",
        "ed"
      ],
      [
        "in",
        "e"
      ],
      [
        "Ġsk",
        "y"
      ],
      [
        "le",
        "w"
      ],
      [
        "Ġbe",
        "ar"
      ],
      [
        "re",
        "nt"
      ],
      [
        "im",
        "al"
      ],
      [
        "Ġtw",
        "o"
      ],
      [
        "Ġ",
        "C"
      ],
      [
        "Ġan",
        "imal"
      ],
      [
        "ĠAn",
        "na"
      ],
      [
        "f",
        "t"
      ],
      [
        "i",
        "a"
      ],
      [
        "Ġ",
        "im"
      ],
      [
        "Ġp",
        "ret"
      ],
      [
        "Ġexpl",
        "ore"
      ],
      [
        "Ġe",
        "ach"
      ],
      [
        "Ġw",
        "o"
      ],
      [
        "ĠA",
        "s"
      ],
      [
        "Ġbo",
        "x"
      ],
      [
        "a",
        "nd"
      ],
      [
        "ra",
        "ve"
      ],
      [
        "'",
        "m"
      ],
      [
        "Ġd",
        "on"
      ],
      [
        "Ġd",
        "re"
      ],
      [
        "Ġfa",
        "st"
      ],
      [
        "es",
        "s"
      ],
      [
        "Ġli",
        "ved"
      ],
      [
        "Ġc",
        "he"
      ],
      [
        "Ġb",
        "etter"
      ],
      [
        "Ġn",
        "ice"
      ],
      [
        "ec",
        "t"
      ],
      [
        "Ġad",
        "vent"
      ],
      [
        "Ġf",
        "am"
      ],
      [
        "Ġke",
        "pt"
      ],
      [
        "in",
        "y"
      ],
      [
        "Ġman",
        "y"
      ],
      [
        "Ġb",
        "oth"
      ],
      [
        "urp",
        "r"
      ],
      [
        "Y",
        "es"
      ],
      [
        "ĠA",
        "fter"
      ],
      [
        "L",
        "et"
      ],
      [
        "Ġs",
        "urpr"
      ],
      [
        "Ġs",
        "u"
      ],
      [
        "Ġsm",
        "ile"
      ],
      [
        "Ġc",
        "le"
      ],
      [
        "Ġk",
        "ind"
      ],
      [
        "Ġj",
        "ump"
      ],
      [
        "Ġst",
        "ay"
      ],
      [
        "ĠBo",
        "b"
      ],
      [
        "Ġh",
        "ard"
      ],
      [
        "Ġf",
        "lew"
      ],
      [
        "a",
        "re"
      ],
      [
        "Ġm",
        "um"
      ],
      [
        "Ġc",
        "ome"
      ],
      [
        "Ġf",
        "in"
      ],
      [
        "f",
        "ore"
      ],
      [
        "Ġre",
        "m"
      ],
      [
        "or",
        "ry"
      ],
      [
        "Ġit",
        "s"
      ],
      [
        "Ġfeel",
        "ing"
      ],
      [
        "Ġso",
        "on"
      ],
      [
        "W",
        "hat"
      ],
      [
        "Ġb",
        "rave"
      ],
      [
        "ur",
        "t"
      ],
      [
        "Ġt",
        "e"
      ],
      [
        "Ġg",
        "l"
      ],
      [
        "Ġ",
        "G"
      ],
      [
        "Ġwal",
        "ked"
      ],
      [
        "is",
        "ed"
      ],
      [
        "Ġst",
        "ill"
      ],
      [
        "Ġadvent",
        "ure"
      ],
      [
        "Ġf",
        "ly"
      ],
      [
        "Ġfam",
        "ily"
      ],
      [
        "Ġf",
        "i"
      ],
      [
        "Ġst",
        "o"
      ],
      [
        "Ġco",
        "l"
      ],
      [
        "ig",
        "h"
      ],
      [
        "ic",
        "ed"
      ],
      [
        "Ġlo",
        "ve"
      ],
      [
        "l",
        "ed"
      ],
      [
        "Ġbe",
        "fore"
      ],
      [
        "Ġcare",
        "ful"
      ],
      [
        "Ġlear",
        "ned"
      ],
      [
        "Ġf",
        "ore"
      ],
      [
        "I",
        "t"
      ],
      [
        "Ġl",
        "oud"
      ],
      [
        "Ġc",
        "on"
      ],
      [
        "op",
        "le"
      ],
      [
        "Ġanimal",
        "s"
      ],
      [
        "Ġo",
        "w"
      ],
      [
        "Ġpl",
        "ace"
      ],
      [
        "Ġs",
        "orry"
      ],
      [
        "ar",
        "y"
      ],
      [
        "Ġwal",
        "king"
      ],
      [
        "Ġy",
        "ear"
      ],
      [
        "g",
        "ry"
      ],
      [
        "ĠJ",
        "ane"
      ],
      [
        "Ġf",
        "ar"
      ],
      [
        "i",
        "p"
      ],
      [
        "i",
        "es"
      ],
      [
        "Ġu",
        "nder"
      ],
      [
        "Ġsa",
        "fe"
      ],
      [
        "oo",
        "l"
      ],
      [
        "Ġgo",
        "ing"
      ],
      [
        "ĠW",
        "e"
      ],
      [
        "ĠMom",
        "my"
      ],
      [
        "Ġim",
        "p"
      ],
      [
        "i",
        "ed"
      ],
      [
        "Ġn",
        "ow"
      ],
      [
        "T",
        "h"
      ],
      [
        "ill",
        "y"
      ],
      [
        "o",
        "y"
      ],
      [
        "Ġ",
        "N"
      ],
      [
        "Ġsto",
        "pped"
      ],
      [
        "Ġf",
        "r"
      ],
      [
        "Ġpe",
        "ople"
      ],
      [
        "Ġnot",
        "iced"
      ],
      [
        "x",
        "t"
      ],
      [
        "Ġl",
        "ist"
      ],
      [
        "g",
        "an"
      ],
      [
        "Ġqu",
        "ick"
      ],
      [
        "a",
        "se"
      ],
      [
        "Ġl",
        "et"
      ],
      [
        "Ġd",
        "el"
      ],
      [
        "j",
        "oy"
      ],
      [
        "Ġd",
        "an"
      ],
      [
        "o",
        "lly"
      ],
      [
        "ma",
        "z"
      ],
      [
        "t",
        "hing"
      ],
      [
        "Ġa",
        "maz"
      ],
      [
        "Ġth",
        "ree"
      ],
      [
        "is",
        "hed"
      ],
      [
        "dd",
        "ed"
      ],
      [
        "Ġst",
        "or"
      ],
      [
        "bb",
        "it"
      ],
      [
        "i",
        "ous"
      ],
      [
        "Ġop",
        "ened"
      ],
      [
        "s",
        "er"
      ],
      [
        "Ġe",
        "y"
      ],
      [
        "Ġw",
        "ind"
      ],
      [
        "Ġevery",
        "one"
      ],
      [
        "Ġ",
        "ide"
      ],
      [
        "Ġm",
        "a"
      ],
      [
        "ĠD",
        "ad"
      ],
      [
        "e",
        "et"
      ],
      [
        "Ġv",
        "o"
      ],
      [
        "an",
        "ge"
      ],
      [
        "Ġquick",
        "ly"
      ],
      [
        "ug",
        "ht"
      ],
      [
        "ĠJo",
        "e"
      ],
      [
        "Ġwa",
        "r"
      ],
      [
        "Ġd",
        "is"
      ],
      [
        "Ġd",
        "e"
      ],
      [
        "Ġr",
        "ed"
      ],
      [
        "Ġwh",
        "ile"
      ],
      [
        "Ġen",
        "joy"
      ],
      [
        "Ġke",
        "ep"
      ],
      [
        "Ġra",
        "bbit"
      ],
      [
        "Ġide",
        "a"
      ],
      [
        "t",
        "ing"
      ],
      [
        "Ġto",
        "w"
      ],
      [
        "Ġth",
        "r"
      ],
      [
        "Ġg",
        "reat"
      ],
      [
        "ĠM",
        "ia"
      ],
      [
        "Ġgr",
        "ound"
      ],
      [
        "is",
        "y"
      ],
      [
        "Ġloo",
        "king"
      ],
      [
        "he",
        "s"
      ],
      [
        "Ġwo",
        "nder"
      ],
      [
        "T",
        "hat"
      ],
      [
        "um",
        "my"
      ],
      [
        "g",
        "er"
      ],
      [
        "Ġt",
        "re"
      ],
      [
        "Ġsh",
        "ould"
      ],
      [
        "Ġwor",
        "k"
      ],
      [
        "ag",
        "e"
      ],
      [
        "Ġdo",
        "or"
      ],
      [
        "em",
        "b"
      ],
      [
        "Ġu",
        "n"
      ],
      [
        "Ġsh",
        "iny"
      ],
      [
        "Ġre",
        "pl"
      ],
      [
        "Ġbe",
        "en"
      ],
      [
        "Ġch",
        "ild"
      ],
      [
        "Ġt",
        "ur"
      ],
      [
        "Ġvo",
        "ice"
      ],
      [
        "Ġw",
        "r"
      ],
      [
        "Ġne",
        "xt"
      ],
      [
        "Ġb",
        "ed"
      ],
      [
        "Ġe",
        "ver"
      ],
      [
        "Ġ",
        "R"
      ],
      [
        "Ġs",
        "n"
      ],
      [
        "Ġm",
        "or"
      ],
      [
        "Ġbr",
        "ight"
      ],
      [
        "Ġrem",
        "emb"
      ],
      [
        "t",
        "ed"
      ],
      [
        "Ġpick",
        "ed"
      ],
      [
        "f",
        "f"
      ],
      [
        "by",
        "e"
      ],
      [
        "Ġfa",
        "ce"
      ],
      [
        "Ġey",
        "es"
      ],
      [
        "h",
        "y"
      ],
      [
        "n",
        "er"
      ],
      [
        "Ġre",
        "al"
      ],
      [
        "Ġno",
        "dded"
      ],
      [
        "a",
        "k"
      ],
      [
        "Ġfore",
        "st"
      ],
      [
        "Ġa",
        "fter"
      ],
      [
        "Ġcu",
        "ri"
      ],
      [
        "Ġne",
        "ar"
      ],
      [
        "Ġwal",
        "k"
      ],
      [
        "Ġrepl",
        "ied"
      ],
      [
        "Ġro",
        "ck"
      ],
      [
        "Ġgood",
        "bye"
      ],
      [
        "Ġcle",
        "an"
      ],
      [
        "Ġno",
        "ise"
      ],
      [
        "Ġd",
        "ra"
      ],
      [
        "Ġbe",
        "gan"
      ],
      [
        "Ġclo",
        "ser"
      ],
      [
        "a",
        "ble"
      ],
      [
        "Ġc",
        "ry"
      ],
      [
        "Ġg",
        "ive"
      ],
      [
        "ĠEvery",
        "one"
      ],
      [
        "Ġpret",
        "ty"
      ],
      [
        "Ġs",
        "qu"
      ],
      [
        "Ġsh",
        "are"
      ],
      [
        "Ġhand",
        "s"
      ],
      [
        "Ġcuri",
        "ous"
      ],
      [
        "Ġg",
        "re"
      ],
      [
        "bb",
        "ed"
      ],
      [
        "Ġh",
        "urt"
      ],
      [
        "a",
        "isy"
      ],
      [
        "Ġp",
        "er"
      ],
      [
        "Ġf",
        "ood"
      ],
      [
        "Ġp",
        "ain"
      ],
      [
        "o",
        "ck"
      ],
      [
        "l",
        "ie"
      ],
      [
        "Ġp",
        "ic"
      ],
      [
        "Ġbl",
        "ue"
      ],
      [
        "ĠM",
        "olly"
      ],
      [
        "ir",
        "st"
      ],
      [
        "Ġb",
        "ad"
      ],
      [
        "Ġwa",
        "it"
      ],
      [
        "Ġa",
        "pp"
      ],
      [
        "Ġs",
        "ound"
      ],
      [
        "Ġd",
        "if"
      ],
      [
        "Ġwat",
        "ched"
      ],
      [
        "Ġstr",
        "ong"
      ],
      [
        "Ġtr",
        "uck"
      ],
      [
        "d",
        "ay"
      ],
      [
        "Ġb",
        "ook"
      ],
      [
        "Ġf",
        "ish"
      ],
      [
        "Ġbe",
        "ing"
      ],
      [
        "Ġr",
        "ight"
      ],
      [
        "ĠSu",
        "e"
      ],
      [
        "Ġcol",
        "or"
      ],
      [
        "b",
        "e"
      ],
      [
        "Ġwor",
        "ld"
      ],
      [
        "ir",
        "ed"
      ],
      [
        "Ġb",
        "it"
      ],
      [
        "ĠD",
        "aisy"
      ],
      [
        "le",
        "s"
      ],
      [
        "Ġwat",
        "ch"
      ],
      [
        "Ġm",
        "ag"
      ],
      [
        "Ġr",
        "u"
      ],
      [
        "im",
        "b"
      ],
      [
        "ĠSara",
        "h"
      ],
      [
        "Ġdo",
        "ll"
      ],
      [
        "Ġbec",
        "ame"
      ],
      [
        "Ġsh",
        "out"
      ],
      [
        "Ġcl",
        "imb"
      ],
      [
        "n",
        "g"
      ],
      [
        "Ġ",
        "-"
      ],
      [
        "Ġle",
        "ave"
      ],
      [
        "Ġbo",
        "at"
      ],
      [
        "Ġthr",
        "ough"
      ],
      [
        "ll",
        "ow"
      ],
      [
        "Ġy",
        "ell"
      ],
      [
        "u",
        "ll"
      ],
      [
        "st",
        "er"
      ],
      [
        "Ġs",
        "ure"
      ],
      [
        "Ġan",
        "gry"
      ],
      [
        "k",
        "ay"
      ],
      [
        "Ġbut",
        "ter"
      ],
      [
        "Ġst",
        "ore"
      ],
      [
        "N",
        "o"
      ],
      [
        "o",
        "on"
      ],
      [
        "Ġhe",
        "re"
      ],
      [
        "Ġm",
        "ouse"
      ],
      [
        "ĠS",
        "p"
      ],
      [
        "Ġn",
        "ight"
      ],
      [
        "Ġyear",
        "s"
      ],
      [
        "Ġho",
        "pped"
      ],
      [
        "Ġa",
        "c"
      ],
      [
        "Ġw",
        "here"
      ],
      [
        "Ġhe",
        "ad"
      ],
      [
        "ĠI",
        "n"
      ],
      [
        "Ġshow",
        "ed"
      ],
      [
        "re",
        "am"
      ],
      [
        "Ġcon",
        "t"
      ],
      [
        "s",
        "o"
      ],
      [
        "pp",
        "y"
      ],
      [
        "Ġr",
        "ain"
      ],
      [
        "Ġse",
        "en"
      ],
      [
        "a",
        "ched"
      ],
      [
        "Ġto",
        "u"
      ],
      [
        "Ġre",
        "ady"
      ],
      [
        "Ġfo",
        "llow"
      ],
      [
        "Ġflow",
        "ers"
      ],
      [
        "Ġt",
        "al"
      ],
      [
        "Ġf",
        "ill"
      ],
      [
        "Ġdif",
        "fe"
      ],
      [
        "Ġwh",
        "y"
      ],
      [
        "Ġwar",
        "m"
      ],
      [
        "Ġgra",
        "bbed"
      ],
      [
        "t",
        "ure"
      ],
      [
        "Ġf",
        "irst"
      ],
      [
        "Ġimp",
        "ort"
      ],
      [
        "Ġwa",
        "ved"
      ],
      [
        "Ġal",
        "so"
      ],
      [
        "o",
        "l"
      ],
      [
        "ĠE",
        "m"
      ],
      [
        "Ġmag",
        "ic"
      ],
      [
        "Ġh",
        "igh"
      ],
      [
        "Ġnam",
        "e"
      ],
      [
        "Th",
        "ank"
      ],
      [
        "Ġjump",
        "ed"
      ],
      [
        "le",
        "ep"
      ],
      [
        "Ġu",
        "se"
      ],
      [
        "Ġhapp",
        "ened"
      ],
      [
        "z",
        "y"
      ],
      [
        "fu",
        "lly"
      ],
      [
        "Ġdre",
        "ss"
      ],
      [
        "Ġdiffe",
        "rent"
      ],
      [
        "ĠJ",
        "im"
      ],
      [
        "Ġimport",
        "ant"
      ],
      [
        "Ġre",
        "ally"
      ],
      [
        "ĠS",
        "ally"
      ],
      [
        "Ġlist",
        "en"
      ],
      [
        "Ġu",
        "s"
      ],
      [
        "iz",
        "ed"
      ],
      [
        "Ġflow",
        "er"
      ],
      [
        "Ġt",
        "ired"
      ],
      [
        "ou",
        "nt"
      ],
      [
        "Ġst",
        "e"
      ],
      [
        "Ġha",
        "ving"
      ],
      [
        "Ġpa",
        "rent"
      ],
      [
        "a",
        "c"
      ],
      [
        "Ġb",
        "ro"
      ],
      [
        "Ġsw",
        "eet"
      ],
      [
        "Ġw",
        "ood"
      ],
      [
        "Ġg",
        "ame"
      ],
      [
        "Ġgra",
        "ss"
      ],
      [
        "u",
        "s"
      ],
      [
        "it",
        "c"
      ],
      [
        "ĠT",
        "o"
      ],
      [
        "Ġpic",
        "ture"
      ],
      [
        "Ġrun",
        "ning"
      ],
      [
        "Ġb",
        "a"
      ],
      [
        "Ġsurpr",
        "ise"
      ],
      [
        "ck",
        "et"
      ],
      [
        "Ġper",
        "f"
      ],
      [
        "m",
        "er"
      ],
      [
        "Ġre",
        "ached"
      ],
      [
        "Ġdo",
        "ne"
      ],
      [
        "Ġbutter",
        "f"
      ],
      [
        "Ġb",
        "ug"
      ],
      [
        "Ġl",
        "ady"
      ],
      [
        "ĠF",
        "in"
      ],
      [
        "Ġc",
        "r"
      ],
      [
        "un",
        "ny"
      ],
      [
        "Ġshout",
        "ed"
      ],
      [
        "Ġp",
        "at"
      ],
      [
        "Ġhim",
        "self"
      ],
      [
        "Ġparent",
        "s"
      ],
      [
        "\"",
        "."
      ],
      [
        "re",
        "n"
      ],
      [
        "at",
        "her"
      ],
      [
        "le",
        "ase"
      ],
      [
        "Ġth",
        "ing"
      ],
      [
        "Ġop",
        "en"
      ],
      [
        "ĠSp",
        "ot"
      ],
      [
        "Ġth",
        "ink"
      ],
      [
        "Ġdel",
        "ic"
      ],
      [
        "w",
        "here"
      ],
      [
        "Ġ",
        "z"
      ],
      [
        "Ġf",
        "ro"
      ],
      [
        "Ġta",
        "st"
      ],
      [
        "i",
        "ent"
      ],
      [
        "Ġt",
        "ell"
      ],
      [
        "Ġh",
        "op"
      ],
      [
        "Ġre",
        "st"
      ],
      [
        "Ġk",
        "id"
      ],
      [
        "Ġenjoy",
        "ed"
      ],
      [
        "Ġbe",
        "h"
      ],
      [
        "ĠA",
        "t"
      ],
      [
        "ĠTom",
        "my"
      ],
      [
        "Ġstor",
        "y"
      ],
      [
        "ĠT",
        "hat"
      ],
      [
        "Ġcare",
        "fully"
      ],
      [
        "Ġgl",
        "ad"
      ],
      [
        "M",
        "om"
      ],
      [
        "Ġfill",
        "ed"
      ],
      [
        "Ġs",
        "et"
      ],
      [
        "Ġhelp",
        "ed"
      ],
      [
        "Ġsa",
        "nd"
      ],
      [
        "Ġfi",
        "re"
      ],
      [
        "Ġon",
        "ly"
      ],
      [
        "ĠT",
        "h"
      ],
      [
        "Ġwonder",
        "ful"
      ],
      [
        "Ġchild",
        "ren"
      ],
      [
        "im",
        "es"
      ],
      [
        "Ġbird",
        "s"
      ],
      [
        "m",
        "ore"
      ],
      [
        "Ġany",
        "more"
      ],
      [
        "Ġcl",
        "a"
      ],
      [
        "ll",
        "ed"
      ],
      [
        "Ġmor",
        "ning"
      ],
      [
        "Ġgre",
        "en"
      ],
      [
        "Ġsl",
        "ow"
      ],
      [
        "t",
        "h"
      ],
      [
        "u",
        "ed"
      ],
      [
        "Ġt",
        "ra"
      ],
      [
        "Ġc",
        "reat"
      ],
      [
        "Ġhapp",
        "ily"
      ],
      [
        "ĠG",
        "ra"
      ],
      [
        "e",
        "st"
      ],
      [
        "Ġd",
        "ark"
      ],
      [
        "Ġst",
        "ick"
      ],
      [
        "Ġwor",
        "ked"
      ],
      [
        "C",
        "an"
      ],
      [
        "p",
        "er"
      ],
      [
        "at",
        "ion"
      ],
      [
        "am",
        "a"
      ],
      [
        "Ġp",
        "ie"
      ],
      [
        "ss",
        "ed"
      ],
      [
        "Ġcom",
        "ing"
      ],
      [
        "Ġto",
        "p"
      ],
      [
        "Ġf",
        "ull"
      ],
      [
        "Ġcat",
        "ch"
      ],
      [
        "Ġl",
        "ight"
      ],
      [
        "is",
        "s"
      ],
      [
        "Ġsm",
        "ell"
      ],
      [
        "Ġar",
        "ri"
      ],
      [
        "u",
        "l"
      ],
      [
        "Ġk",
        "itc"
      ],
      [
        "Ġkitc",
        "hen"
      ],
      [
        "Ġas",
        "k"
      ],
      [
        "Ġwor",
        "ry"
      ],
      [
        "Ġfa",
        "v"
      ],
      [
        "re",
        "l"
      ],
      [
        "Ġm",
        "on"
      ],
      [
        "ĠJ",
        "ill"
      ],
      [
        "Ġbr",
        "other"
      ],
      [
        "Ġstr",
        "ange"
      ],
      [
        "L",
        "ook"
      ],
      [
        "a",
        "ught"
      ],
      [
        "Ġ",
        "K"
      ],
      [
        "Ġt",
        "all"
      ],
      [
        "Ġbutterf",
        "ly"
      ],
      [
        "Ġfro",
        "g"
      ],
      [
        "Ġa",
        "m"
      ],
      [
        "Ġd",
        "in"
      ],
      [
        "Ġher",
        "self"
      ],
      [
        "Ġsp",
        "ot"
      ],
      [
        "Ġunder",
        "st"
      ],
      [
        "k",
        "en"
      ],
      [
        "ay",
        "be"
      ],
      [
        "Ġfor",
        "g"
      ],
      [
        "Ġa",
        "ble"
      ],
      [
        "nd",
        "ma"
      ],
      [
        "Ġsurpr",
        "ised"
      ],
      [
        "Ġarri",
        "ved"
      ],
      [
        "Ġc",
        "ra"
      ],
      [
        "Ġd",
        "ri"
      ],
      [
        "ĠL",
        "et"
      ],
      [
        "Ġfl",
        "o"
      ],
      [
        "Ġamaz",
        "ing"
      ],
      [
        "ĠThe",
        "re"
      ],
      [
        "ard",
        "s"
      ],
      [
        "Ġat",
        "e"
      ],
      [
        "Ġmo",
        "ve"
      ],
      [
        "s",
        "p"
      ],
      [
        "re",
        "ed"
      ],
      [
        "or",
        "ing"
      ],
      [
        "ĠFin",
        "ally"
      ],
      [
        "Ġb",
        "unny"
      ],
      [
        "Ġd",
        "r"
      ],
      [
        "Ġso",
        "ft"
      ],
      [
        "Ġs",
        "at"
      ],
      [
        "Ġme",
        "an"
      ],
      [
        "Ġpo",
        "nd"
      ],
      [
        "Ġen",
        "ough"
      ],
      [
        "s",
        "y"
      ],
      [
        "u",
        "ff"
      ],
      [
        "in",
        "ed"
      ],
      [
        "Ġo",
        "kay"
      ],
      [
        "Ġy",
        "ummy"
      ],
      [
        "Ġu",
        "sed"
      ],
      [
        "Ġfin",
        "ished"
      ],
      [
        "D",
        "on"
      ],
      [
        "Ġl",
        "ess"
      ],
      [
        "Ġdre",
        "am"
      ],
      [
        "Ġma",
        "king"
      ],
      [
        "Ġkid",
        "s"
      ],
      [
        "ar",
        "ing"
      ],
      [
        "W",
        "e"
      ],
      [
        "i",
        "ver"
      ],
      [
        "Ġm",
        "other"
      ],
      [
        "ro",
        "om"
      ],
      [
        "Ġrememb",
        "ered"
      ],
      [
        "Ġh",
        "id"
      ],
      [
        "Ġfe",
        "ll"
      ],
      [
        "Ġpr",
        "in"
      ],
      [
        "Ġlear",
        "n"
      ],
      [
        "Ġtre",
        "es"
      ],
      [
        "Ġcont",
        "in"
      ],
      [
        "Ġha",
        "s"
      ],
      [
        "Ġdelic",
        "ious"
      ],
      [
        "ar",
        "s"
      ],
      [
        "Ġfe",
        "w"
      ],
      [
        "Ġperf",
        "ect"
      ],
      [
        "Ġpie",
        "ce"
      ],
      [
        "Ġs",
        "ing"
      ],
      [
        "Ġp",
        "re"
      ],
      [
        "at",
        "ed"
      ],
      [
        "Ġbeh",
        "ind"
      ],
      [
        "b",
        "er"
      ],
      [
        "Ġs",
        "leep"
      ],
      [
        "at",
        "er"
      ],
      [
        "Ġp",
        "rom"
      ],
      [
        "ig",
        "n"
      ],
      [
        "Ġst",
        "op"
      ],
      [
        "ĠA",
        "my"
      ],
      [
        "Ġsw",
        "im"
      ],
      [
        "Ġyell",
        "ow"
      ],
      [
        "'",
        "re"
      ],
      [
        "il",
        "a"
      ],
      [
        "Ġget",
        "ting"
      ],
      [
        "Ġd",
        "ro"
      ],
      [
        "Ġtry",
        "ing"
      ],
      [
        "Ġ",
        "ve"
      ],
      [
        "Ġc",
        "ook"
      ],
      [
        "Ġli",
        "on"
      ],
      [
        "Ġany",
        "thing"
      ],
      [
        "b",
        "o"
      ],
      [
        "Ġa",
        "ir"
      ],
      [
        "ĠJ",
        "en"
      ],
      [
        "Ġgo",
        "ne"
      ],
      [
        "Ġfun",
        "ny"
      ],
      [
        "ĠN",
        "ow"
      ],
      [
        "ĠL",
        "ila"
      ],
      [
        "as",
        "ure"
      ],
      [
        "Ġow",
        "n"
      ],
      [
        "Ġreal",
        "ized"
      ],
      [
        "Ġwood",
        "s"
      ],
      [
        "Ġfo",
        "x"
      ],
      [
        "Ġha",
        "ir"
      ],
      [
        "Ġcontin",
        "ued"
      ],
      [
        "r",
        "ed"
      ],
      [
        "s",
        "c"
      ],
      [
        "Ġjo",
        "y"
      ],
      [
        "Ġsl",
        "ide"
      ],
      [
        "Ġfriend",
        "ly"
      ],
      [
        "ro",
        "ss"
      ],
      [
        "Ġfa",
        "ir"
      ],
      [
        "c",
        "ed"
      ],
      [
        "Ġhe",
        "ld"
      ],
      [
        "Ġho",
        "le"
      ],
      [
        "Ġpu",
        "ppy"
      ],
      [
        "Ġfin",
        "ally"
      ],
      [
        "Ġdra",
        "w"
      ],
      [
        "ĠB",
        "illy"
      ],
      [
        "Ġle",
        "ft"
      ],
      [
        "Ġde",
        "ep"
      ],
      [
        "g",
        "on"
      ],
      [
        "Ġt",
        "ri"
      ],
      [
        "Ġy",
        "es"
      ],
      [
        "Ġwr",
        "ong"
      ],
      [
        "Ġtou",
        "ch"
      ],
      [
        "ĠJim",
        "my"
      ],
      [
        "i",
        "ke"
      ],
      [
        "l",
        "ing"
      ],
      [
        "Ġm",
        "ess"
      ],
      [
        "Ġp",
        "art"
      ],
      [
        "Ġco",
        "ld"
      ],
      [
        "Ġg",
        "ent"
      ],
      [
        "ir",
        "rel"
      ],
      [
        "Ġneed",
        "ed"
      ],
      [
        "Ġfollow",
        "ed"
      ],
      [
        "u",
        "ally"
      ],
      [
        "i",
        "ch"
      ],
      [
        "pp",
        "ing"
      ],
      [
        "ic",
        "y"
      ],
      [
        "as",
        "k"
      ],
      [
        "ĠP",
        "et"
      ],
      [
        "Ġb",
        "ow"
      ],
      [
        "Ġc",
        "ut"
      ],
      [
        "Ġdo",
        "ing"
      ],
      [
        "Ġfi",
        "x"
      ],
      [
        "c",
        "o"
      ],
      [
        "Ġb",
        "at"
      ],
      [
        "Ġmom",
        "ent"
      ],
      [
        "Ġleave",
        "s"
      ],
      [
        "'",
        "ll"
      ],
      [
        "Ġs",
        "ec"
      ],
      [
        "Ġag",
        "reed"
      ],
      [
        "Ġlook",
        "s"
      ],
      [
        "Ġcom",
        "p"
      ],
      [
        "Ġbl",
        "ock"
      ],
      [
        "Ġpret",
        "end"
      ],
      [
        "a",
        "v"
      ],
      [
        "Ġe",
        "l"
      ],
      [
        "Ġbr",
        "ought"
      ],
      [
        "Ġsqu",
        "irrel"
      ],
      [
        "a",
        "ir"
      ],
      [
        "Ġ",
        "ice"
      ],
      [
        "one",
        "y"
      ],
      [
        "Ġbu",
        "y"
      ],
      [
        "ĠM",
        "ama"
      ],
      [
        "Ġse",
        "ar"
      ],
      [
        "Ġthan",
        "k"
      ],
      [
        "Ġ",
        "our"
      ],
      [
        "ie",
        "ld"
      ],
      [
        "ĠSo",
        "on"
      ],
      [
        "Ġwind",
        "ow"
      ],
      [
        "Ġmagic",
        "al"
      ],
      [
        "H",
        "ell"
      ],
      [
        "W",
        "ow"
      ],
      [
        "Ġc",
        "ool"
      ],
      [
        "Ġbe",
        "e"
      ],
      [
        "Ġwh",
        "ite"
      ],
      [
        "Ġba",
        "by"
      ],
      [
        "Ġfav",
        "or"
      ],
      [
        "Hell",
        "o"
      ],
      [
        "Ġh",
        "ill"
      ],
      [
        "Ġsh",
        "o"
      ],
      [
        "Ġv",
        "is"
      ],
      [
        "Ġste",
        "pped"
      ],
      [
        "Ġt",
        "ight"
      ],
      [
        "Ġless",
        "on"
      ],
      [
        "Ġfavor",
        "ite"
      ],
      [
        "m",
        "ed"
      ],
      [
        "Ġc",
        "ake"
      ],
      [
        "Ġm",
        "ar"
      ],
      [
        "Ġbu",
        "ild"
      ],
      [
        "p",
        "h"
      ],
      [
        "Ġan",
        "other"
      ],
      [
        "Ġsome",
        "one"
      ],
      [
        "Ġstay",
        "ed"
      ],
      [
        "Ġd",
        "uck"
      ],
      [
        "Ġsw",
        "ing"
      ],
      [
        "ĠM",
        "ary"
      ],
      [
        "ĠA",
        "ll"
      ],
      [
        "as",
        "h"
      ],
      [
        "Ġfly",
        "ing"
      ],
      [
        "Ġdin",
        "ner"
      ],
      [
        "s",
        "ic"
      ],
      [
        "z",
        "e"
      ],
      [
        "Ġwas",
        "n"
      ],
      [
        "Ġb",
        "ag"
      ],
      [
        "Ġdo",
        "es"
      ],
      [
        "ĠBen",
        "ny"
      ],
      [
        "Ġmu",
        "sic"
      ],
      [
        "m",
        "e"
      ],
      [
        "am",
        "p"
      ],
      [
        "Ġevery",
        "thing"
      ],
      [
        "Ġunderst",
        "and"
      ],
      [
        "Ġre",
        "ad"
      ],
      [
        "Ġsp",
        "ark"
      ],
      [
        "Ġel",
        "se"
      ],
      [
        "m",
        "b"
      ],
      [
        "Ġh",
        "un"
      ],
      [
        "Ġsp",
        "l"
      ],
      [
        "Ġamaz",
        "ed"
      ],
      [
        "Ġm",
        "et"
      ],
      [
        "Ġlo",
        "st"
      ],
      [
        "Ġm",
        "at"
      ],
      [
        "ce",
        "ss"
      ],
      [
        "Ġs",
        "ong"
      ],
      [
        "Ġca",
        "nd"
      ],
      [
        "Ġclo",
        "se"
      ],
      [
        "vent",
        "ually"
      ],
      [
        "Ġfar",
        "mer"
      ],
      [
        "itt",
        "en"
      ],
      [
        "ĠC",
        "an"
      ],
      [
        "ĠTh",
        "is"
      ],
      [
        "l",
        "ice"
      ],
      [
        "s",
        "et"
      ],
      [
        "Ġbe",
        "l"
      ],
      [
        "Ġexpl",
        "oring"
      ],
      [
        "Ġta",
        "ble"
      ],
      [
        "Ġslow",
        "ly"
      ],
      [
        "Ġbe",
        "ach"
      ],
      [
        "Ġlaug",
        "h"
      ],
      [
        "it",
        "ing"
      ],
      [
        "i",
        "re"
      ],
      [
        "o",
        "om"
      ],
      [
        "Ġb",
        "re"
      ],
      [
        "am",
        "es"
      ],
      [
        "Ġmo",
        "st"
      ],
      [
        "Ġball",
        "oon"
      ],
      [
        "Ġforg",
        "ot"
      ],
      [
        "Ġjo",
        "b"
      ],
      [
        "ct",
        "or"
      ],
      [
        "s",
        "hed"
      ],
      [
        "Ġp",
        "et"
      ],
      [
        "Ġbig",
        "ger"
      ],
      [
        "Ġtur",
        "n"
      ],
      [
        "Ġpain",
        "t"
      ],
      [
        "Ġw",
        "ished"
      ],
      [
        "ow",
        "er"
      ],
      [
        "Ġcl",
        "oud"
      ],
      [
        "r",
        "ow"
      ],
      [
        "Ġl",
        "ake"
      ],
      [
        "Ġhe",
        "ar"
      ],
      [
        "Ġd",
        "ir"
      ],
      [
        "Ġbe",
        "lie"
      ],
      [
        "bb",
        "y"
      ],
      [
        "m",
        "ent"
      ],
      [
        "in",
        "s"
      ],
      [
        "Ġc",
        "ount"
      ],
      [
        "Ġm",
        "ight"
      ],
      [
        "s",
        "w"
      ],
      [
        "uff",
        "y"
      ],
      [
        "e",
        "ared"
      ],
      [
        "g",
        "le"
      ],
      [
        "Ġf",
        "ield"
      ],
      [
        "Ġp",
        "en"
      ],
      [
        "Ġg",
        "u"
      ],
      [
        "ĠDad",
        "dy"
      ],
      [
        "Ġbro",
        "ken"
      ],
      [
        "Ġf",
        "ur"
      ],
      [
        "an",
        "ce"
      ],
      [
        "Ġan",
        "sw"
      ],
      [
        "Ġfast",
        "er"
      ],
      [
        "b",
        "r"
      ],
      [
        "l",
        "a"
      ],
      [
        "Ġw",
        "on"
      ],
      [
        "Ġwor",
        "d"
      ],
      [
        "Ġmu",
        "st"
      ],
      [
        "Ġpo",
        "in"
      ],
      [
        "Ġr",
        "ide"
      ],
      [
        "Ġj",
        "u"
      ],
      [
        "Ġwa",
        "ited"
      ],
      [
        "ĠW",
        "hat"
      ],
      [
        "Ġac",
        "ross"
      ],
      [
        "Ġwa",
        "ll"
      ],
      [
        "Ġc",
        "e"
      ],
      [
        "an",
        "c"
      ],
      [
        "Ġar",
        "m"
      ],
      [
        "Ġcar",
        "s"
      ],
      [
        "Ġho",
        "ld"
      ],
      [
        "Ġjo",
        "in"
      ],
      [
        "Ġtur",
        "ned"
      ],
      [
        "Ġp",
        "lease"
      ],
      [
        "il",
        "ing"
      ],
      [
        "a",
        "st"
      ],
      [
        "e",
        "y"
      ],
      [
        "Ġb",
        "ar"
      ],
      [
        "le",
        "ph"
      ],
      [
        "o",
        "s"
      ],
      [
        "z",
        "z"
      ],
      [
        "Ġs",
        "ide"
      ],
      [
        "en",
        "ce"
      ],
      [
        "ĠM",
        "um"
      ],
      [
        "Ġne",
        "igh"
      ],
      [
        "Ġbl",
        "ack"
      ],
      [
        "Ġtow",
        "ards"
      ],
      [
        "ĠEm",
        "ma"
      ],
      [
        "Ġneigh",
        "b"
      ],
      [
        "m",
        "ing"
      ],
      [
        "Ġw",
        "he"
      ],
      [
        "Ġh",
        "or"
      ],
      [
        "Ġg",
        "i"
      ],
      [
        "ke",
        "y"
      ],
      [
        "ĠJ",
        "ust"
      ],
      [
        "Ġsu",
        "ch"
      ],
      [
        "Ġsh",
        "ared"
      ],
      [
        "Ġadventure",
        "s"
      ],
      [
        "Th",
        "is"
      ],
      [
        "Ġblock",
        "s"
      ],
      [
        "ou",
        "p"
      ],
      [
        "Ġc",
        "ried"
      ],
      [
        "Ġp",
        "ro"
      ],
      [
        "Ġlong",
        "er"
      ],
      [
        "Ġlist",
        "ened"
      ],
      [
        "Ġprom",
        "ised"
      ],
      [
        "Ġs",
        "illy"
      ],
      [
        "Ġca",
        "st"
      ],
      [
        "Ġal",
        "one"
      ],
      [
        "Ġsec",
        "ret"
      ],
      [
        "a",
        "pp"
      ],
      [
        "Ġh",
        "at"
      ],
      [
        "Ġst",
        "u"
      ],
      [
        "Ġsomet",
        "imes"
      ],
      [
        "ĠF",
        "l"
      ],
      [
        "Ġcu",
        "p"
      ],
      [
        "Ġche",
        "ered"
      ],
      [
        "Ġdad",
        "dy"
      ],
      [
        "Ġrememb",
        "er"
      ],
      [
        "O",
        "h"
      ],
      [
        "W",
        "hy"
      ],
      [
        "g",
        "g"
      ],
      [
        "Ġp",
        "ink"
      ],
      [
        "ve",
        "s"
      ],
      [
        "Ġwor",
        "ried"
      ],
      [
        "Ġsu",
        "ddenly"
      ],
      [
        "Ġcla",
        "pped"
      ],
      [
        "Ġvis",
        "it"
      ],
      [
        "Ġh",
        "ot"
      ],
      [
        "Ġhapp",
        "en"
      ],
      [
        "ĠD",
        "o"
      ],
      [
        "Ġor",
        "ange"
      ],
      [
        "Ġow",
        "l"
      ],
      [
        "av",
        "y"
      ],
      [
        "i",
        "et"
      ],
      [
        "op",
        "e"
      ],
      [
        "Ġother",
        "s"
      ],
      [
        "Ġdis",
        "app"
      ],
      [
        "Ġclimb",
        "ed"
      ],
      [
        "Ġbelie",
        "ve"
      ],
      [
        "e",
        "e"
      ],
      [
        "Ġsc",
        "ary"
      ],
      [
        "ne",
        "y"
      ],
      [
        "ot",
        "t"
      ],
      [
        "Ġta",
        "il"
      ],
      [
        "Ġflo",
        "or"
      ],
      [
        "f",
        "ort"
      ],
      [
        "Ġat",
        "t"
      ],
      [
        "Ġsee",
        "med"
      ],
      [
        "Ġbook",
        "s"
      ],
      [
        "i",
        "pped"
      ],
      [
        "Ġsm",
        "o"
      ],
      [
        "Ġre",
        "lie"
      ],
      [
        "ra",
        "ct"
      ],
      [
        "Ġlo",
        "ne"
      ],
      [
        "Ġtal",
        "k"
      ],
      [
        "Ġhun",
        "gry"
      ],
      [
        "Ġh",
        "ide"
      ],
      [
        "Ġr",
        "iver"
      ],
      [
        "Ġpl",
        "ant"
      ],
      [
        "Ġcol",
        "our"
      ],
      [
        "Ġtre",
        "asure"
      ],
      [
        "Ġw",
        "et"
      ],
      [
        "Ġc",
        "or"
      ],
      [
        "ĠM",
        "r"
      ],
      [
        "ain",
        "ed"
      ],
      [
        "as",
        "ed"
      ],
      [
        "Ġdan",
        "ger"
      ],
      [
        "Ġbre",
        "ak"
      ],
      [
        "Ġsa",
        "me"
      ],
      [
        "Ġsh",
        "ap"
      ],
      [
        "Ġj",
        "e"
      ],
      [
        "Ġal",
        "ong"
      ],
      [
        "Ġdra",
        "gon"
      ],
      [
        "Ġlone",
        "ly"
      ],
      [
        "d",
        "er"
      ],
      [
        "e",
        "k"
      ],
      [
        "ed",
        "dy"
      ],
      [
        "Ġyou",
        "ng"
      ],
      [
        "ch",
        "ool"
      ],
      [
        "Ġcolor",
        "s"
      ],
      [
        "Mom",
        "my"
      ],
      [
        "Ġh",
        "ig"
      ],
      [
        "Ġhe",
        "avy"
      ],
      [
        "le",
        "ss"
      ],
      [
        "or",
        "m"
      ],
      [
        "on",
        "s"
      ],
      [
        "fu",
        "sed"
      ],
      [
        "Ġhelp",
        "ing"
      ],
      [
        "Ġgr",
        "ow"
      ],
      [
        "Ġmor",
        "al"
      ],
      [
        "itt",
        "y"
      ],
      [
        "Ġse",
        "es"
      ],
      [
        "Ġpu",
        "lled"
      ],
      [
        "H",
        "i"
      ],
      [
        "Ġ",
        "3"
      ],
      [
        "Ġpo",
        "cket"
      ],
      [
        "Ġqu",
        "iet"
      ],
      [
        "Ġnear",
        "by"
      ],
      [
        "Ġf",
        "ight"
      ],
      [
        "Ġst",
        "one"
      ],
      [
        "Ġcl",
        "ot"
      ],
      [
        "ĠIn",
        "side"
      ],
      [
        "Ġpicture",
        "s"
      ],
      [
        "w",
        "eet"
      ],
      [
        "Ġo",
        "b"
      ],
      [
        "ri",
        "es"
      ],
      [
        "Ġsh",
        "op"
      ],
      [
        "Ġcast",
        "le"
      ],
      [
        "Ġrelie",
        "ved"
      ],
      [
        "Ġclot",
        "hes"
      ],
      [
        "Ġt",
        "reat"
      ],
      [
        "Ġs",
        "chool"
      ],
      [
        "Ġb",
        "ott"
      ],
      [
        "Ġsa",
        "il"
      ],
      [
        "Ġli",
        "ving"
      ],
      [
        "Ġte",
        "ac"
      ],
      [
        "el",
        "c"
      ],
      [
        "el",
        "y"
      ],
      [
        "um",
        "b"
      ],
      [
        "Ġch",
        "o"
      ],
      [
        "Ġcolor",
        "ful"
      ],
      [
        "Ġgent",
        "le"
      ],
      [
        "i",
        "x"
      ],
      [
        "Ġt",
        "iny"
      ],
      [
        "Ġe",
        "leph"
      ],
      [
        "uck",
        "y"
      ],
      [
        "Ġpa",
        "per"
      ],
      [
        "Ġeleph",
        "ant"
      ],
      [
        "t",
        "hy"
      ],
      [
        "Ġm",
        "oney"
      ],
      [
        "Ġn",
        "ap"
      ],
      [
        "Ġdo",
        "ctor"
      ],
      [
        "Ġj",
        "our"
      ],
      [
        "Ġbu",
        "cket"
      ],
      [
        "ion",
        "s"
      ],
      [
        "Ġtow",
        "n"
      ],
      [
        "Ġpiece",
        "s"
      ],
      [
        "Ġp",
        "ers"
      ],
      [
        "Ġevery",
        "where"
      ],
      [
        "Ġhig",
        "her"
      ],
      [
        "Ġs",
        "it"
      ],
      [
        "Ġp",
        "ig"
      ],
      [
        "Ġst",
        "re"
      ],
      [
        "Ġwith",
        "out"
      ],
      [
        "Ġca",
        "ve"
      ],
      [
        "Ġclo",
        "sed"
      ],
      [
        "Ġb",
        "ike"
      ],
      [
        "is",
        "ter"
      ],
      [
        "ĠW",
        "ith"
      ],
      [
        "Ġca",
        "ught"
      ],
      [
        "Ġsn",
        "ow"
      ],
      [
        "Ġcook",
        "ies"
      ],
      [
        "l",
        "f"
      ],
      [
        "re",
        "w"
      ],
      [
        "Ġst",
        "and"
      ],
      [
        "Ġla",
        "nd"
      ],
      [
        "Ġtra",
        "in"
      ],
      [
        "Ġmon",
        "ster"
      ],
      [
        "ne",
        "ver"
      ],
      [
        "or",
        "ed"
      ],
      [
        "Ġr",
        "ace"
      ],
      [
        "ĠM",
        "ummy"
      ],
      [
        "Ġse",
        "a"
      ],
      [
        "Ġf",
        "all"
      ],
      [
        "Ġd",
        "es"
      ],
      [
        "Ġlike",
        "s"
      ],
      [
        "Ġeat",
        "ing"
      ],
      [
        "Ġf",
        "ree"
      ],
      [
        "Ġp",
        "urp"
      ],
      [
        "Ġexc",
        "iting"
      ],
      [
        "Ġbu",
        "s"
      ],
      [
        "Ġbl",
        "ank"
      ],
      [
        "Ġmo",
        "ved"
      ],
      [
        "Ġdro",
        "ve"
      ],
      [
        "Ġbat",
        "h"
      ],
      [
        "T",
        "he"
      ],
      [
        "u",
        "it"
      ],
      [
        "Ġto",
        "day"
      ],
      [
        "Ġhe",
        "art"
      ],
      [
        "Ġsn",
        "ack"
      ],
      [
        "b",
        "ble"
      ],
      [
        "is",
        "es"
      ],
      [
        "Ġpl",
        "an"
      ],
      [
        "Ġwe",
        "ar"
      ],
      [
        "Ġre",
        "ach"
      ],
      [
        "Ġk",
        "ite"
      ],
      [
        "ate",
        "ful"
      ],
      [
        "Ġfair",
        "y"
      ],
      [
        "Ġword",
        "s"
      ],
      [
        "Ġteac",
        "her"
      ],
      [
        "Ġpurp",
        "le"
      ],
      [
        "M",
        "aybe"
      ],
      [
        "ou",
        "n"
      ],
      [
        "Ġp",
        "ack"
      ],
      [
        "Ġgra",
        "ndma"
      ],
      [
        "ĠJen",
        "ny"
      ],
      [
        "Ġblank",
        "et"
      ],
      [
        "Ġs",
        "ister"
      ],
      [
        "Ġw",
        "elc"
      ],
      [
        "Ġh",
        "ar"
      ],
      [
        "Ġc",
        "ream"
      ],
      [
        "Ġm",
        "in"
      ],
      [
        "Ġn",
        "aught"
      ],
      [
        "Ġgr",
        "ateful"
      ],
      [
        "Ġsmile",
        "s"
      ],
      [
        "y",
        "ard"
      ],
      [
        "Ġmake",
        "s"
      ],
      [
        "Åĵ",
        "I"
      ],
      [
        "Ġta",
        "king"
      ],
      [
        "aught",
        "er"
      ],
      [
        "e",
        "re"
      ],
      [
        "p",
        "e"
      ],
      [
        "w",
        "ard"
      ],
      [
        "Ġhe",
        "al"
      ],
      [
        "ĠT",
        "weet"
      ],
      [
        "le",
        "br"
      ],
      [
        "Ġth",
        "ough"
      ],
      [
        "Ġdis",
        "co"
      ],
      [
        "Ġpart",
        "y"
      ],
      [
        "Ġcand",
        "y"
      ],
      [
        "Ġce",
        "lebr"
      ],
      [
        "Ġdanger",
        "ous"
      ],
      [
        "D",
        "o"
      ],
      [
        "in",
        "ing"
      ],
      [
        "ver",
        "ed"
      ],
      [
        "ĠJ",
        "ake"
      ],
      [
        "Ġback",
        "yard"
      ],
      [
        "Ġwo",
        "ke"
      ],
      [
        "un",
        "ch"
      ],
      [
        "Ġre",
        "t"
      ],
      [
        "Ġw",
        "ise"
      ],
      [
        "Ġm",
        "ix"
      ],
      [
        "Ġp",
        "ower"
      ],
      [
        "Ġfr",
        "uit"
      ],
      [
        "ĠEm",
        "ily"
      ],
      [
        "Ġjour",
        "ney"
      ],
      [
        "Ġnaught",
        "y"
      ],
      [
        "Ġc",
        "our"
      ],
      [
        "Ġco",
        "ll"
      ],
      [
        "Ġlaug",
        "hing"
      ],
      [
        "Ġret",
        "ur"
      ],
      [
        "a",
        "il"
      ],
      [
        "p",
        "a"
      ],
      [
        "r",
        "ound"
      ],
      [
        "Ġb",
        "ite"
      ],
      [
        "Ġb",
        "ask"
      ],
      [
        "Ġst",
        "uck"
      ],
      [
        "Ġup",
        "set"
      ],
      [
        "Ġli",
        "fe"
      ],
      [
        "Ġdir",
        "ty"
      ],
      [
        "Ġbask",
        "et"
      ],
      [
        "Ġg",
        "ather"
      ],
      [
        "Ġdan",
        "ce"
      ],
      [
        "ĠGra",
        "ndma"
      ],
      [
        "B",
        "ut"
      ],
      [
        "Ġb",
        "oun"
      ],
      [
        "pp",
        "er"
      ],
      [
        "Ġsm",
        "art"
      ],
      [
        "Ġwould",
        "n"
      ],
      [
        "ĠC",
        "h"
      ],
      [
        "i",
        "ble"
      ],
      [
        "Ġd",
        "ist"
      ],
      [
        "ig",
        "g"
      ],
      [
        "ad",
        "ow"
      ],
      [
        "ĠA",
        "lice"
      ],
      [
        "Ġnot",
        "hing"
      ],
      [
        "Ġmy",
        "ster"
      ],
      [
        "Ġdel",
        "ight"
      ],
      [
        "Ġcry",
        "ing"
      ],
      [
        "ĠFl",
        "uffy"
      ],
      [
        "c",
        "ing"
      ],
      [
        "h",
        "o"
      ],
      [
        "Ġday",
        "s"
      ],
      [
        "Ġsm",
        "iling"
      ],
      [
        "Ġapp",
        "le"
      ],
      [
        "Ġju",
        "ice"
      ],
      [
        "Ġcour",
        "se"
      ],
      [
        "d",
        "e"
      ],
      [
        "i",
        "er"
      ],
      [
        "Ġc",
        "ou"
      ],
      [
        "Ġp",
        "ract"
      ],
      [
        "ir",
        "t"
      ],
      [
        "Ġsw",
        "am"
      ],
      [
        "Ġcreat",
        "ure"
      ],
      [
        "Ġsho",
        "es"
      ],
      [
        "it",
        "ch"
      ],
      [
        "Ġin",
        "st"
      ],
      [
        "Ġe",
        "ventually"
      ],
      [
        "Ġle",
        "a"
      ],
      [
        "ep",
        "end"
      ],
      [
        "Ġv",
        "ill"
      ],
      [
        "Ġtou",
        "ched"
      ],
      [
        "ĠTo",
        "gether"
      ],
      [
        "Ġpre",
        "s"
      ],
      [
        "Ġd",
        "aughter"
      ],
      [
        "Ġin",
        "c"
      ],
      [
        "Ġwe",
        "ll"
      ],
      [
        "Ġsp",
        "r"
      ],
      [
        "Ġsun",
        "ny"
      ],
      [
        "Ġad",
        "m"
      ],
      [
        "ount",
        "ain"
      ],
      [
        "Ġp",
        "ot"
      ],
      [
        "Ġbu",
        "sh"
      ],
      [
        "Ġcr",
        "ay"
      ],
      [
        "Ġth",
        "in"
      ],
      [
        "itt",
        "ing"
      ],
      [
        "Ġim",
        "ag"
      ],
      [
        "Ġmin",
        "ut"
      ],
      [
        "Ġs",
        "ign"
      ],
      [
        "Ġw",
        "ings"
      ],
      [
        "Ġo",
        "nt"
      ],
      [
        "Ġbu",
        "sy"
      ],
      [
        "our",
        "s"
      ],
      [
        "Ġsear",
        "ch"
      ],
      [
        "Ġont",
        "o"
      ],
      [
        "Ġg",
        "if"
      ],
      [
        "ne",
        "ss"
      ],
      [
        "Ġso",
        "l"
      ],
      [
        "Ġpl",
        "ane"
      ],
      [
        "Ġsc",
        "ream"
      ],
      [
        "Ġbr",
        "ing"
      ],
      [
        "Ġspot",
        "ted"
      ],
      [
        "ĠPet",
        "e"
      ],
      [
        "Ġhug",
        "e"
      ],
      [
        "Ġpe",
        "ace"
      ],
      [
        "Ġpat",
        "h"
      ],
      [
        "Ġbel",
        "ong"
      ],
      [
        "r",
        "ot"
      ],
      [
        "nd",
        "pa"
      ],
      [
        "Ġm",
        "ark"
      ],
      [
        "Ġg",
        "ames"
      ],
      [
        "Ġwh",
        "ist"
      ],
      [
        "Ġpu",
        "shed"
      ],
      [
        "Ġtr",
        "ou"
      ],
      [
        "Ġtast",
        "y"
      ],
      [
        "Ġsing",
        "ing"
      ],
      [
        "or",
        "row"
      ],
      [
        "et",
        "er"
      ],
      [
        "Ġwant",
        "s"
      ],
      [
        "Ġsp",
        "ent"
      ],
      [
        "Ġexpl",
        "ained"
      ],
      [
        "Ġpu",
        "ll"
      ],
      [
        "Ġdoll",
        "s"
      ],
      [
        "Ġsmo",
        "oth"
      ],
      [
        "Ġpres",
        "ent"
      ],
      [
        "c",
        "le"
      ],
      [
        "Ġc",
        "ir"
      ],
      [
        "Ġsa",
        "ck"
      ],
      [
        "Ġe",
        "ar"
      ],
      [
        "Ġsh",
        "ining"
      ],
      [
        "Ġpa",
        "st"
      ],
      [
        "Ġwatch",
        "ing"
      ],
      [
        "Ġprin",
        "cess"
      ],
      [
        "Ġswim",
        "ming"
      ],
      [
        "p",
        "ed"
      ],
      [
        "Ġst",
        "ars"
      ],
      [
        "Ġk",
        "itten"
      ],
      [
        "Ġme",
        "et"
      ],
      [
        "Ġsun",
        "sh"
      ],
      [
        "and",
        "y"
      ],
      [
        "Ġfore",
        "ver"
      ],
      [
        "Ġcra",
        "w"
      ],
      [
        "Ġsunsh",
        "ine"
      ],
      [
        "f",
        "ish"
      ],
      [
        "Ġs",
        "uc"
      ],
      [
        "Ġs",
        "itting"
      ],
      [
        "Ġb",
        "reat"
      ],
      [
        "Ġf",
        "ig"
      ],
      [
        "Ġsa",
        "ng"
      ],
      [
        "out",
        "h"
      ],
      [
        "Ġpo",
        "l"
      ],
      [
        "Ġint",
        "ere"
      ],
      [
        "Ġstor",
        "ies"
      ],
      [
        "Ġbro",
        "ke"
      ],
      [
        "Ġintere",
        "st"
      ],
      [
        "e",
        "ad"
      ],
      [
        "o",
        "nd"
      ],
      [
        "Ġf",
        "it"
      ],
      [
        "on",
        "t"
      ],
      [
        "Ġfr",
        "ont"
      ],
      [
        "Ġrock",
        "s"
      ],
      [
        "Ġbow",
        "l"
      ],
      [
        "Ġcloud",
        "s"
      ],
      [
        "Ġneighb",
        "or"
      ],
      [
        "Ġwelc",
        "ome"
      ],
      [
        "O",
        "kay"
      ],
      [
        "Ġ",
        "'"
      ],
      [
        "Ġd",
        "ry"
      ],
      [
        "ck",
        "ed"
      ],
      [
        "Ġco",
        "zy"
      ],
      [
        "Ġdan",
        "ced"
      ],
      [
        "Ġshap",
        "es"
      ],
      [
        "Ġstre",
        "et"
      ],
      [
        "b",
        "ow"
      ],
      [
        "Ġw",
        "in"
      ],
      [
        "ĠS",
        "t"
      ],
      [
        "an",
        "g"
      ],
      [
        "Ġy",
        "ard"
      ],
      [
        "Ġli",
        "ft"
      ],
      [
        "Ġwh",
        "ich"
      ],
      [
        "Ġro",
        "lled"
      ],
      [
        "Ġow",
        "ner"
      ],
      [
        "Ġapp",
        "eared"
      ],
      [
        "Ġtast",
        "ed"
      ],
      [
        "Ġmon",
        "key"
      ],
      [
        "'",
        "d"
      ],
      [
        "a",
        "ss"
      ],
      [
        "Ġl",
        "ate"
      ],
      [
        "Ġl",
        "unch"
      ],
      [
        "Ġbr",
        "own"
      ],
      [
        "iz",
        "e"
      ],
      [
        "Ġplace",
        "s"
      ],
      [
        "ock",
        "ed"
      ],
      [
        "Ġrain",
        "bow"
      ],
      [
        "Ġhor",
        "se"
      ],
      [
        "S",
        "ure"
      ],
      [
        "o",
        "g"
      ],
      [
        "Ġs",
        "ort"
      ],
      [
        "ĠThe",
        "ir"
      ],
      [
        "al",
        "m"
      ],
      [
        "Ġwho",
        "le"
      ],
      [
        "Ġwonder",
        "ed"
      ],
      [
        "Ġac",
        "c"
      ],
      [
        "Ġdri",
        "ver"
      ],
      [
        "ĠPet",
        "er"
      ],
      [
        "Ġarm",
        "s"
      ],
      [
        "Ġs",
        "ur"
      ],
      [
        "Ġm",
        "outh"
      ],
      [
        "Ġe",
        "as"
      ],
      [
        "Ġe",
        "gg"
      ],
      [
        "Ġcar",
        "ry"
      ],
      [
        "t",
        "en"
      ],
      [
        "Ġl",
        "ar"
      ],
      [
        "Ġr",
        "ound"
      ],
      [
        "Ġfor",
        "get"
      ],
      [
        "Ġsh",
        "ook"
      ],
      [
        "Ġno",
        "ises"
      ],
      [
        "Ġke",
        "y"
      ],
      [
        "Ġask",
        "s"
      ],
      [
        "Ġdr",
        "ink"
      ],
      [
        "Ġdro",
        "pped"
      ],
      [
        "Ġcor",
        "ner"
      ],
      [
        "Ġvill",
        "age"
      ],
      [
        "Ġa",
        "ct"
      ],
      [
        "Ġs",
        "ug"
      ],
      [
        "Ġw",
        "ish"
      ],
      [
        "re",
        "ad"
      ],
      [
        "Ġm",
        "ine"
      ],
      [
        "ĠB",
        "e"
      ],
      [
        "Ġre",
        "sp"
      ],
      [
        "Ġqu",
        "est"
      ],
      [
        "iz",
        "z"
      ],
      [
        "Ġsear",
        "ched"
      ],
      [
        "c",
        "er"
      ],
      [
        "s",
        "ie"
      ],
      [
        "Ġf",
        "ence"
      ],
      [
        "en",
        "s"
      ],
      [
        "Ġe",
        "ag"
      ],
      [
        "ĠL",
        "ittle"
      ],
      [
        "Ġsp",
        "icy"
      ],
      [
        "Ġcar",
        "rot"
      ],
      [
        "ĠSam",
        "my"
      ],
      [
        "Ġfo",
        "ot"
      ],
      [
        "Ġche",
        "st"
      ],
      [
        "th",
        "day"
      ],
      [
        "fort",
        "able"
      ],
      [
        "Ġb",
        "ought"
      ],
      [
        "id",
        "er"
      ],
      [
        "Ġth",
        "rew"
      ],
      [
        "Ġne",
        "t"
      ],
      [
        "Ġsp",
        "in"
      ],
      [
        "Ġlove",
        "ly"
      ],
      [
        "Ġcon",
        "fused"
      ],
      [
        "Ġcoll",
        "ect"
      ],
      [
        "Ġinterest",
        "ing"
      ],
      [
        "Ġlar",
        "ge"
      ],
      [
        "g",
        "round"
      ],
      [
        "o",
        "ve"
      ],
      [
        "ll",
        "o"
      ],
      [
        "Ġle",
        "m"
      ],
      [
        "ble",
        "m"
      ],
      [
        "ge",
        "st"
      ],
      [
        "Ġmum",
        "my"
      ],
      [
        "ĠK",
        "itty"
      ],
      [
        "a",
        "ur"
      ],
      [
        "m",
        "an"
      ],
      [
        "Ġ",
        "ent"
      ],
      [
        "Ġw",
        "ild"
      ],
      [
        "le",
        "t"
      ],
      [
        "Ġe",
        "mb"
      ],
      [
        "Ġsh",
        "y"
      ],
      [
        "Ġj",
        "un"
      ],
      [
        "Ġsp",
        "oon"
      ],
      [
        "ĠF",
        "red"
      ],
      [
        "Ġch",
        "air"
      ],
      [
        "Ġpa",
        "ss"
      ],
      [
        "Ġjo",
        "ke"
      ],
      [
        "Ġfar",
        "m"
      ],
      [
        "Ġma",
        "il"
      ],
      [
        "bo",
        "ard"
      ],
      [
        "Ġpro",
        "blem"
      ],
      [
        "H",
        "ey"
      ],
      [
        "g",
        "ged"
      ],
      [
        "Ġb",
        "en"
      ],
      [
        "it",
        "y"
      ],
      [
        "Ġo",
        "ce"
      ],
      [
        "ar",
        "ra"
      ],
      [
        "ĠL",
        "ater"
      ],
      [
        "Ġle",
        "g"
      ],
      [
        "op",
        "h"
      ],
      [
        "Ġhop",
        "ed"
      ],
      [
        "Ġemb",
        "arra"
      ],
      [
        "Ġoce",
        "an"
      ],
      [
        "c",
        "or"
      ],
      [
        "d",
        "le"
      ],
      [
        "Ġ",
        "ign"
      ],
      [
        "Ġa",
        "p"
      ],
      [
        "Ġm",
        "iss"
      ],
      [
        "Ġgr",
        "oup"
      ],
      [
        "ĠR",
        "o"
      ],
      [
        "Ġbug",
        "s"
      ],
      [
        "sc",
        "ap"
      ],
      [
        "Ġansw",
        "er"
      ],
      [
        "anc",
        "y"
      ],
      [
        "Ġbott",
        "le"
      ],
      [
        "d",
        "en"
      ],
      [
        "Ġa",
        "f"
      ],
      [
        "Ġb",
        "lew"
      ],
      [
        "id",
        "ge"
      ],
      [
        "an",
        "ut"
      ],
      [
        "an",
        "ch"
      ],
      [
        "Ġk",
        "ick"
      ]
    ]
  }
}